/**
  ******************************************************************************
  * @file    network_data.c
  * @author  AST Embedded Analytics Research Platform
  * @date    2026-06-28T09:36:54+0000
  * @brief   AI Tool Automatic Code Generator for Embedded NN computing
  ******************************************************************************
  * Copyright (c) 2026 STMicroelectronics.
  * All rights reserved.
  *
  * This software is licensed under terms that can be found in the LICENSE file
  * in the root directory of this software component.
  * If no LICENSE file comes with this software, it is provided AS-IS.
  ******************************************************************************
  */

#include "network_data.h"
STAI_ALIGNED(8)
const uint64_t g_network_weights_array[17713] = {
  0xdfee0a1f45c39650U, 0x8177fd1961c93017U, 0xc7dacd74c9dd9134U, 0x9d635b042fda5b57U,
  0xfbf555e084ca330eU, 0x40babcf1386ec981U, 0xc5d837e65b27fcaaU, 0x65483778904ed7ceU,
  0x4a0384d670c9fcacU, 0xc2247f2d5a88abacU, 0x5851ba8ce0926a35U, 0xa91af87e9ea1516U,
  0x5b4148819141564bU, 0x633c2c8b24e4443cU, 0x819c00c3e0c56c19U, 0xb83c1990026ffa48U,
  0x21b198550f52db5bU, 0xefaaff8d1f5460baU, 0x9e56270c2f26dcbfU, 0xd5a07dce7f72b7c8U,
  0x64cc0d373c7ffbecU, 0xd1b892b13762d04bU, 0x94522725ac040f9fU, 0x6a28b9dea3cd64f7U,
  0x7ced050f37ec89b4U, 0x10b9ff6dbd2be7c3U, 0x662c897e2e8108bdU, 0x23bb530bc4629b1eU,
  0x91aca750ee7f798aU, 0x68a024354bb1db02U, 0x3957d32729df2dedU, 0xf361b14522dd14cbU,
  0xdc40adb6df6d97eeU, 0xd99caef731db81bbU, 0x81dd2915c7719617U, 0xae54f93e64d81f6dU,
  0xd9bcfb441bdf23c0U, 0x371ec2e7abe7f944U, 0x659034bfec463bc1U, 0x3381b429d63541e1U,
  0x50746875145160cdU, 0xa7d12961b8a5dd84U, 0x5a4961f14042a31dU, 0xf924d6a48149a4c6U,
  0xb838bde4b2ff31e6U, 0x5e7787810c63070eU, 0x4c39e4cb43cbdb73U, 0xc1059d2410fe1c87U,
  0x90579c0822b3bd8aU, 0x575d4c7f2e03fa9fU, 0xc5cc4c3cc9d81a48U, 0x46e94926da7f6733U,
  0xbdf337b8939faa6eU, 0xa929e74a4feaa096U, 0x390b0c4e0ac19681U, 0x7495df9ac9a7a3edU,
  0xe8745ad44492e725U, 0x23567f3aa2c8cc98U, 0x2e5c8907edc44c3U, 0x97034ea3bdc31d46U,
  0x291abae87120e029U, 0x762d0201330f058cU, 0x9c600939edadddb0U, 0xfdbe31f2bebe7faaU,
  0x988f75ccd800924aU, 0x3295cff54b597f68U, 0xd1caa1d25f74f028U, 0x79b88f9560dd1329U,
  0x5e5c538b5991e2ddU, 0x924904b4adcd4a7fU, 0x6114b3df9241ca5cU, 0x5a3f367fd692b9aaU,
  0xbf679b2ee721c4eeU, 0x31d706b2ff4707f8U, 0x8110985a5467081bU, 0x6a900b30e34d1b5U,
  0x75c3c7ed0666e959U, 0x4c54cd9a144c39c2U, 0x2c7f0e35b99457cfU, 0x2e99b62bdca8b9eeU,
  0x67b0d47d1341bcc0U, 0x590fc599f125f44aU, 0xb804710500ad4216U, 0xd150308130a99e10U,
  0xf3a219e4b340689aU, 0x32d0291622aea7f3U, 0xb94f649dee73a9c3U, 0x81ff61be127f04e0U,
  0x4451f4230abaa01aU, 0xd6ff4bb8624ce3dbU, 0x4fbd2d06c1f0ab1dU, 0xe09f86622d820402U,
  0x628e63446a5c2212U, 0x58e89cbbe17ae581U, 0x70135e1b8cfe4a42U, 0x9eaf45d5f3f2e16eU,
  0x36db3a8131224aaeU, 0xb81c9c3a4199acb0U, 0x2a96b3c3b2c39a56U, 0x4c7ae15d81402c09U,
  0xe000e12e170d50eaU, 0x15545c6fddb3126fU, 0xf30bc4fed022522fU, 0x1fce2e0050c6b94eU,
  0xe83577ddca81c3ccU, 0xdb130865899d4da7U, 0xb7c79d41eeb54d45U, 0x7f0bf0bc119db511U,
  0xfffff677ffffe452U, 0xf0dfffffe0cU, 0x3200001059U, 0xb55000013a3U,
  0x5daf00000af4U, 0x8f100000984U, 0x1848ffffd932U, 0x205f00001645U,
  0xfffff60b00010dbcU, 0xffffde62000007c1U, 0xffffe3a6000061b6U, 0x168b000007a9U,
  0x4a5c000003aeU, 0xfffff2d400002789U, 0xfffff403000012e9U, 0x529500000ce9U,
  0xafc795d0141a4f56U, 0xf61cda1fccf6114aU, 0x10df13c7f66f5ecbU, 0x2f38edcec6a63e20U,
  0xf7c5ccbca0ec52dcU, 0xed11aa68290da393U, 0xaf22ee90bf82ecbU, 0x96571c73b5ca36c1U,
  0xb560cf2b32ed1e5aU, 0xcf2403451037ad0dU, 0xbe53ef0b3d127d2U, 0x426155a8b61f1dddU,
  0xd7ef8a590fd7de0aU, 0x1ceb2246efff530dU, 0xa5f641f22bf1bdbcU, 0xbb214a1dfbf2c714U,
  0xeb5ae0c416ccab92U, 0xf8cbcebeb0d4e1a0U, 0x14aba16cc17d511U, 0xce334b323a3f4641U,
  0x3006f002d53af4d8U, 0x9f12a6f1f741aa23U, 0xfa302a563a5b9f35U, 0xf3fef5150fdb3be3U,
  0xdaa6e5acc124292eU, 0x5caa1a1c17f4e032U, 0x19ebfcbc0369bcb4U, 0xd830b536301cb32eU,
  0xded5f0d45cb01e00U, 0xef7e9eb6de6c5a1U, 0x4a084a18cbf0dd97U, 0xab4fd8f71f03eca3U,
  0x210fb1e07fff168aU, 0x4623530520feb256U, 0xc5ec07193ee9d5e6U, 0xe1e6b5eb4d01e8d0U,
  0xeb05d3d4ec0442fcU, 0xe7dcbc42fae3dca6U, 0xe9f3c285102da9efU, 0xe8a52ec691e500dbU,
  0xfbc5e8013c19ba1bU, 0xeb2004f89ab657beU, 0x7951d1c0d6e51bf0U, 0x295c4d113e0306f0U,
  0x1b2a304c11dc3c2bU, 0xbf14f93034fb3920U, 0xcacbf949273916dbU, 0xe24717f532c146adU,
  0xfbbc2e9b21b14622U, 0x10de0409f81edfd8U, 0x50e6aa8d5823628U, 0xdc1f0c0b15dfee00U,
  0xba29d1179ccca24eU, 0xb2bbcbb4cfd9cb48U, 0x2a213ac4c3492cfbU, 0x828e8f90ad80968U,
  0x6b142cafe71449f6U, 0x3b6c37ed9dd12e47U, 0x5c20472faab148d4U, 0x52d3ec37bc29d328U,
  0x4629819a109849fbU, 0xd926c9e8262f651dU, 0xcff951e333b3875cU, 0x9f4551f2ba2eb82cU,
  0xe4dc452bdaebde58U, 0xc12482abbf50c40fU, 0xefec9e56dfc8b404U, 0xd7c3464d414e5943U,
  0xbeb040ec32df13a4U, 0x9d4dd422303f135U, 0xfb3100e6ea083ddfU, 0x5303fefb26c7acdfU,
  0xeee1f1e21b30c30bU, 0xa1d8dcc6e2f1d3fbU, 0x4ae5f9c6ddebddc0U, 0xbc2c52fac5d0e316U,
  0xd61a3c10bdfcd7dbU, 0xdfc9f32c1eece2a1U, 0x888117fb0b3b39f3U, 0x38bce0fae24612e1U,
  0x4fdf3708e6f1f4dfU, 0x4daace319c9d944U, 0x41f524c8fd13f7f5U, 0xc2ce21f8ddec4b1eU,
  0x114860eff337b4c7U, 0x37ef0d2ddf2c432aU, 0x41e99a3ebac31db0U, 0xcd0ecef934f8ce0aU,
  0xc64adabab7454dd8U, 0xcffdea01444aff09U, 0xa2e11bdcc7d5bfc2U, 0x32dd5ccebda3ff0U,
  0xd8d02618f954ef13U, 0x1d40ee5ebdd0ea4U, 0xc1fa16c7dcea1815U, 0x306bb153f240f02U,
  0xe426e851b70cee2cU, 0xc1a514cbe2f0d913U, 0xf720cadbc5cfdc47U, 0x43c6e344cec51ffcU,
  0x1aed08c9320edf43U, 0xfa431504dd063ac2U, 0x5fcbb4f525e7ff24U, 0xbfde29a32d2a30ddU,
  0xc03446ef4bba09c7U, 0xf60bf0c0252c15a6U, 0xa331dac72209b32cU, 0x1d612f0d1342f10dU,
  0x863110915bec126U, 0x25102039d2c42bd7U, 0xe31c4cb543e3cf2dU, 0x110d20dbc63a18b9U,
  0xffd0fed4143b374eU, 0xeb0b19d3e7ba4102U, 0xc8cbd557cf304bc7U, 0x2c2f9f59114b0eccU,
  0x4e8105293607d3c9U, 0xec4323118cc3e06U, 0xca192aff4adc24d5U, 0xf63cd2d0edd622c0U,
  0xd05512279d2ce62fU, 0x47f7d316f4592d40U, 0x47174c02e3d2cfbeU, 0x1a34e954f5bb10c1U,
  0x8b6443a49dbf7f9U, 0x47f53d35d74f2e25U, 0xc91e52f619cf07d0U, 0x4cd03f2be324acaU,
  0x259012ea17feff04U, 0xb9ad15bf432ef0e8U, 0x2c2bb1dcaba05ccU, 0xf2a14d0f63fda33U,
  0xf6ff4f4bfbf4d931U, 0x50e9f024ac4f1a13U, 0x3fc81a48fcf0e7dcU, 0x472da7fa48b3fcccU,
  0x9e6bdb7de22e346U, 0x4d6ea4a35f2fbd4U, 0xd104c74f47d1d5d1U, 0xedd9b353bdf6d7dcU,
  0xe5b3a1c82e08f912U, 0x29f02aeb51b5eff7U, 0x20e851f901c70554U, 0xed1309dcfeeec23cU,
  0xaf293be3274b9d51U, 0x2ce52e3944283ca8U, 0xae8485ae3953871U, 0xf85330fc1e61515dU,
  0x30e59153e768ce4aU, 0x73ded3c906049c6dU, 0xa5eb1640f149679U, 0xafa1ce1724bdc8c5U,
  0xc4c2a4c9a65fa9f8U, 0xbda9bcb1369fda06U, 0x621521a01128cbc9U, 0x3fdb28f5cdc9a2f2U,
  0xbd9e489981574177U, 0x494527dfa9d5152fU, 0xd57e48ef2af4b71eU, 0xeb05c82631edb19dU,
  0x8f7f71fb3b011d2U, 0x3c8e3567efead91eU, 0x4e59c1acb83fa9bbU, 0x228e0b3d641d4731U,
  0x26f8db59d957255fU, 0xf68953381d0ff0e7U, 0xbada9db519c36fd4U, 0xdef851b4e8c227afU,
  0x6411e3b9301ca188U, 0x5124f1464cfb09d5U, 0xe85914590917ead3U, 0x2fd82fe1243331cdU,
  0x536236f3dd9bc82bU, 0x9fe57e16edecc921U, 0x2b1b2bd2b1b6a6baU, 0x1dcf59472f2c2d6cU,
  0x75c5a142c60c1738U, 0xa36baf2af3c8210aU, 0x622a3416a898c015U, 0x105a180dfd5b41f2U,
  0x26d0390ef2f5c5a1U, 0xe5fcf7c64227b31bU, 0xd3e20bbd21ead44aU, 0xd00312bfb3d353abU,
  0x18f95f461105fc1aU, 0xd2c2f7cee42abcc9U, 0x21933c55371016dbU, 0xc4a7b01dd403fb26U,
  0xfb1c6013e415cbfdU, 0xeaf9fee3c9b4dfe1U, 0xb3d4560a38325149U, 0xe65afd15e9f7c8f5U,
  0xa730e54bd01a22a7U, 0xe6f2ec2f3d2bf134U, 0xf6a6c81fe0c6c8c1U, 0xfd3db0c9e5ebdea8U,
  0xe9caebdccde705ccU, 0x7d8bed4401af913U, 0xe94113e7fef82a34U, 0x4d13e9a21340deaaU,
  0xc602f5353c0b0535U, 0x17c4b059ff043068U, 0x3b32e4c900e16edeU, 0xbd2caebecc4c45b1U,
  0xe6420f1d003b094dU, 0xfb4bee2ce2cdfd0bU, 0xddbeabf046bdd25eU, 0xaf4ddaff2ff2c1daU,
  0xb6fbddb3b1dc1f1eU, 0x624597e5dae0522eU, 0xd404ca30cfc1dd46U, 0x4a18b4ccc3c6c3d8U,
  0xf745bab7eaf76807U, 0x5809e3c4e8dbecc7U, 0x177f1c53f1e610ccU, 0x1ed4e75c24bf111bU,
  0xe38bd4e8ef7fa03bU, 0x17e7458cdfc4fce7U, 0xe50729d1fb4d4ee8U, 0x2e4622df00c4db5cU,
  0xdceb3df32a79a238U, 0x3e5527df0dae5626U, 0x659ec04d333eb268U, 0xff31322cbde34649U,
  0xbb50d2390f811da6U, 0xe4afd10107dfe5d8U, 0x41341e3e7e30712U, 0xc74937a91da1099dU,
  0xe2ca74d995be65a4U, 0xff1c6b0095124461U, 0x3db6cd3b4a0210ceU, 0x4bc2a54df49e1a95U,
  0x4d2c20c7f7af17f5U, 0xc6e1aa10651a49e4U, 0x153913fff42453dbU, 0xdf5221bb1e009e10U,
  0xe78417c9a817a906U, 0x5dff1aa2d9ff397U, 0x503138f9351df9d2U, 0xe6b661e3750df8d9U,
  0xe0c1aaf3da2fa4e8U, 0x1834bde3bbcca1c5U, 0xab00bb3537c4ef15U, 0x41c2b11466eb71dU,
  0x280bff56c03bb9e0U, 0xb1a4f2bc704f3b6U, 0x39c1175217c5e752U, 0x514421c8cefeb240U,
  0x304945bbf6c81448U, 0xcadd916491630c7U, 0xbefc1dacb3d14836U, 0x9eb41d4be3340244U,
  0x1646500df532ee20U, 0x2debf22828d7af33U, 0xbe1fbfb65daa28a8U, 0xcc1adbbdf29c939U,
  0x25b63cace2541ee1U, 0x24c011b9debdab24U, 0xabd74449b317d91bU, 0xbae094c4a232ae4U,
  0x140b60df12469d06U, 0xdc051dcf3404fd19U, 0xec139e35d21d0435U, 0x531fdf452f0e843U,
  0x279ef93793d53143U, 0xa10fd0cecc08cc1dU, 0xcf2de362df12fe0fU, 0xf8e5f8ae394a5031U,
  0xd30281c1c73ae11bU, 0x333b31074921c1c4U, 0x2bef0731d12ec32aU, 0xf1e253c2430a52c5U,
  0xfe71ab440b821f9U, 0xa9feb51ae84aefe1U, 0xc5a4b408d1513533U, 0xf23aef191e18f5ceU,
  0x48ae3913d890f726U, 0xa31816c4b1d4b5c1U, 0x231031e41fe9f53cU, 0xe4b9e19c42ae5eecU,
  0xf0a1d4b9d00cc2a6U, 0x4cc7071e45c357c0U, 0xbee80fe9cf0ee7c3U, 0xb34740f7c70f26fdU,
  0x4008b75d60fcc135U, 0x20f1c5fadd18f9d4U, 0xa60336aae30de527U, 0x16a20b4126f1c4acU,
  0x240b23d53c81d0b0U, 0x2af04602cdf1e9cfU, 0xddebe616bfba4958U, 0x58e3ade2febcde13U,
  0xc74504a83495c43dU, 0x1139d9ec09d01adcU, 0xce52d7e3c8ddfc4aU, 0x1de5c1dfbf4d2446U,
  0x83151c212f8eb20U, 0xb92eceb930c8f227U, 0x480ce8fe6be9a81bU, 0x5befb72cc95dabfeU,
  0xba159ae943c2234dU, 0xf251e217df2e450aU, 0xaeb4b719cabc1711U, 0xc0e40f2cf115c0fbU,
  0xda1948c661c12f31U, 0x2cb6b9f9c3fb1810U, 0xdf54d4f3f0ba2e36U, 0xc3ba3eb1d3f35cfeU,
  0xdc08aae1869bb51cU, 0xfc1430d23ef7b9e8U, 0x545cb8b4bcaaeeceU, 0x22c23db3203409c2U,
  0xe5d6e7e7c8e436abU, 0x15cb0a51d4ef13f9U, 0xbbb8e955a1f42165U, 0x24ba5fb0290e3e08U,
  0xbad9e6e5c80000c1U, 0xc12291d45555a92U, 0xbc29f62654443decU, 0xbbda15f9eb49d632U,
  0xf6f15352c0c25f1dU, 0xc53b23e0f30ad903U, 0xe8f5006640cc94c0U, 0x701bc71558ae0b4aU,
  0x27ed32c9d11552d0U, 0xeba04031531e982fU, 0x2ad2b44ce426c0c4U, 0x44d350df4cc4ad55U,
  0x19b60e00fd5e2dd7U, 0xdefbc73cb13e24b7U, 0x616d2ff39cef9c16U, 0x993dbfbd69cca5afU,
  0x26d8e57f208c0257U, 0xe0df512bf6ab4ee1U, 0xb7edefba382e332cU, 0xa3122828a7dc0797U,
  0xf0b2a9edc4fe2814U, 0xbd1642a8271a45acU, 0xe0e57441beb5bf05U, 0x31f30cc4ade645aeU,
  0x12273924b75700e6U, 0x25e02cd7d5d7281cU, 0xb471b954dea3ec8dU, 0x1ded2f352ee9451dU,
  0x32f40fd4ea6d65d1U, 0x3d00f024eb0fc300U, 0x6a10d6ebb8ae032bU, 0xdbea2f156729c21cU,
  0xf6d10a06221eb1b4U, 0x21093c9b15201409U, 0x3de6e314022a0414U, 0xa4e0f9ee14ea11e6U,
  0xe2d4cf1406cf071bU, 0x3dc24ff8c63cf442U, 0x56094447ebaae82dU, 0x20bac85dcd0e023eU,
  0x3e412412a6590cc7U, 0x3430fdd931c7a4baU, 0xca5c38f0f7061ce1U, 0x4ddbcd122632e93fU,
  0xea041cb1b8530ccdU, 0xbff9e50d5f6937e3U, 0xb103bcc926f3deaaU, 0xd3e81ef6069b5e29U,
  0xdbf4cfca06afd4d9U, 0x1cbd4ed253b6db2bU, 0x63e24b0cf4c25833U, 0x34b4979f0d5c2116U,
  0xdccd0021d2b70cefU, 0x36bed35ecac7376cU, 0x661ec8bbafddbe1dU, 0xa10aba2ef2321d14U,
  0x420725a95679dca8U, 0xc133c6386222f0f7U, 0x3baf0b1b3fc7ed31U, 0x81cbff48f4f2cbU,
  0xec010d4a0334241dU, 0xf8193f46eac7485eU, 0x2c99b8cbc8ad1cd8U, 0x2a242d0ca54899ebU,
  0x4a1a004797254fbcU, 0x52d7ffcfd3f4ee00U, 0xbab8cbfff424daf9U, 0x4ae1b8bf2e333a08U,
  0x60abfff247463a0cU, 0xed29cc1c3ec5e9ebU, 0x12bff1ed5262dbc1U, 0xced3f3dce3eca5b1U,
  0xfed720235118c3fcU, 0xaf1ee0cc2116e10fU, 0xcca8022d0a0b1632U, 0xa4f3ebc423713448U,
  0xa91c1d3804252dd8U, 0x3ae2c649e8ca34e2U, 0x4ec23beebcef0d26U, 0xd000c8a5f804e9b4U,
  0x22e61be9d8562810U, 0xbbd715e00834e2a7U, 0xca3cd34b554281fcU, 0xcac7f8262d8ebaf4U,
  0xbd60401a3fdab071U, 0x384805e5f2150953U, 0x2df02801e8a90522U, 0xadcd36be1a19e5d9U,
  0x2bf9ddfe0f4e0fcaU, 0x3543dce104e539b7U, 0xc03a381f36f4114cU, 0xa103c9173e08adf4U,
  0x170d40b63943205aU, 0xe33908c60851b846U, 0xd14c021c3df99a3aU, 0x47bd6209b9210b2dU,
  0xbd0310c734b8cce8U, 0xbadbf320fcd12ddcU, 0xba40d2adcf19daa8U, 0x2cdccbfad5d7dfeeU,
  0x162dd8d607d03df3U, 0x30f5b734c1fb622cU, 0x41551ec5d3ffea27U, 0xc63bfd0c0006deU,
  0xb3d5bbfbca1ed5b5U, 0xd5d8d3f4f1f80a1dU, 0xeb44c4e451e9f3c5U, 0x1f61ebf288dcc515U,
  0xb652450435162506U, 0x3fec3b1012eebcabU, 0xe8194dec3dd3c212U, 0x1450da9ebfeb2b2U,
  0xfb14150db836fa38U, 0x43fc98cadc28d718U, 0xc12dd0e445c652f4U, 0xe7cfb1ef09b136d5U,
  0xf2eb490edd481324U, 0xdef4ebb91e06534dU, 0x57c4eef03c25f412U, 0x4b4522d609a861b3U,
  0x2dcf1f15d59d5917U, 0xab3f164f3dfcfcd7U, 0x4d72b635ea0d40adU, 0x3db2eb96cd505b4aU,
  0x98c62af5651eda47U, 0xfd0312e8f4bed0c3U, 0xbff914a63a612361U, 0xe3f82cf9e252e1ddU,
  0x380c40209f01c0b2U, 0x4b20c9104b24bd00U, 0xbedc19fd22e1d1e0U, 0x2d2ee11f3c9bd729U,
  0xce07170441f8aaafU, 0xa42b1708d2f513d8U, 0xe1e519c8639d01bdU, 0x99c1dee50349cd18U,
  0xb9335a2ed7c2f85dU, 0xa961df7c6fe4c15U, 0x30d257f4ef072af2U, 0xd7293f11b250baa4U,
  0x4cdaca6142fb5aa8U, 0x44c8d2d745bf39b0U, 0xe09d8e815456e14U, 0x460e61d7efd8ba01U,
  0xb356fd99592f60U, 0xabf5d7bba63fbe2aU, 0x313413c99aa23206U, 0xb453f7e8e0e2f438U,
  0xc3ec01ff99d93e07U, 0xd83a4ed581cf3439U, 0xe70ef13e0529b828U, 0xce70e49c37b901c9U,
  0x17e8db5ecbf43c01U, 0x1ce9fd15e8d6f2eaU, 0x37ac7fd1fe2bc3ddU, 0xeb3c28a4111c069bU,
  0xddc6debe2bade427U, 0x3c1df41bc9da61b4U, 0xcb3658a9f7f8154fU, 0xfef7165d3d42e7f4U,
  0xc9e8e21efd02082cU, 0x380be30535b6010fU, 0x2c1abd3532eb290dU, 0xf4d80b2422f5f4b9U,
  0xde3e7ebb3b380ca3U, 0xe7e0b7afef32fcdcU, 0xedd1c507efadb71bU, 0xbab8ffe34223fb03U,
  0xf0349bac62fbb26U, 0x2afbd42f4c060134U, 0xe2e426d8e3f6e14cU, 0xa457b93156aed4e8U,
  0xf414f2cf6158bac9U, 0x2f3ed352e2b28d6U, 0x51db1b2bbd2c283dU, 0xda05ccc2b9ef0ac7U,
  0x3fef6fbbdd4b024aU, 0xb0013aecbc0fa20U, 0x2279b25fc9bd714U, 0x1dc551f5631e24f6U,
  0x12021513c902f402U, 0xe3190898ef37b833U, 0x2106f109f716e814U, 0xb8e61ef1d3145655U,
  0x4f1d38bdde28e4e3U, 0xf1ba42bee1ba29c9U, 0x1316f30ad72304f1U, 0xcd0eab0d451a2ad9U,
  0xf5e83de2bef4bbefU, 0x47bb46250c094bd9U, 0x425836d7dd28c3f8U, 0xab4b1b3e0b5344f7U,
  0xe07f1c3b09b047d5U, 0x32c23f08fb1f343bU, 0x219ddc54be2528c6U, 0x321edf09e607ef43U,
  0x193754caef275632U, 0xfcfe32aeecdd804U, 0xcda51ee655c5b1b3U, 0xbe3e2e2d7bfc39cfU,
  0xe3f752004e0847a9U, 0xe3002c4950ae00efU, 0x55df3ac4d53a0218U, 0x1ecdedda4d71f6b8U,
  0xbbfb38a6ee2d16e0U, 0x3cfafe51b21d130aU, 0xde19cd48e90ff357U, 0x2334df11403a52cbU,
  0x49eadbf90ccb4427U, 0xf1f200c62026b3f2U, 0xd4c2490dae5ae72bU, 0xb3cd03ec07021e08U,
  0x1d26c62e2ec8432eU, 0xfb2dc8feebfbc2eeU, 0x212e36411467cebfU, 0x275b22cc2f26f533U,
  0xe14af637d2c1be28U, 0x43bcd7fc272d120cU, 0xed3033b8cec9c349U, 0x1a1aacc11f14efa1U,
  0x171409f6df3c0a2aU, 0x4de8abd21336acb0U, 0x1fd6f5defdb8c759U, 0xa73bfbf7e1f2f6bfU,
  0xb6cb14e9dd89d59cU, 0xb8d005eaf2011a30U, 0x969551d931e50ea8U, 0xf7165022e7dd2706U,
  0xc6673d2a34d6cabaU, 0x3d1dd8e1b45cf328U, 0x1dc200eac9f42e45U, 0xedc7e06c42f3c9e3U,
  0x42e60dfffdae25e5U, 0xa2c71f15c70908e2U, 0x1e1a6533fa2d2323U, 0x1ac320d005a4f1caU,
  0x40ccd8281b9c11f1U, 0xe15f2956e1e9b0beU, 0xf211624b26b5b8beU, 0xb20e6732063f2456U,
  0x8f89764a1f401fd2U, 0xa9f6b9b822fa1319U, 0x9a10abe9f8fa1b5eU, 0xf2db0f3aca04a25U,
  0x103df4e0b3c74dfcU, 0x2e03f91759c20e98U, 0xdebeb8b64ad19ae6U, 0xbfed71ad512025b5U,
  0xf14d98eaac11c83dU, 0x5a1e6a4557da69deU, 0xf2202c16e5b29b45U, 0x332ee3a144cceda2U,
  0x11e66912041ef8a3U, 0x4b44f7c5b645ceb9U, 0x37d0943ac45a4d11U, 0xa12db85a423c2f6aU,
  0x41309d81a89d5d46U, 0x13c35dd73f0ccdd7U, 0xf0ddd9f24cf8b5e8U, 0xee8470ca74acfc1U,
  0x44f40dd11e2fd025U, 0x47180dfe4d23e49dU, 0x2807452eb61e4e00U, 0x2b21c239094dacadU,
  0xbaf40328dfd310d7U, 0x15174cd8bdecca05U, 0x5630e3e153c23b0fU, 0xf69df3afdee1e54fU,
  0x331baf87a893f533U, 0xe92c3d1509ec3cecU, 0x3353ec53400039f8U, 0x2bff13a4d6d52f22U,
  0xf132d41815245129U, 0xb42e2837ff14d413U, 0xe1fae3b6032728faU, 0x44cde0cebfd10db8U,
  0xa5a51a2baf53b211U, 0xc92919c939d44b1fU, 0x27c6be37aea1dee7U, 0x9d05a8461a38d013U,
  0x610432dfe320321bU, 0xcab5ea214318bad4U, 0xe1247fc3f7c925e3U, 0x26d41bd3da0ecf22U,
  0xb430a8fa3b1b41eeU, 0xb2fe0fc8eff5ddd3U, 0xd3cffb2dd8da4fc7U, 0x2fcce223f8d4ece1U,
  0x23fef5c26b8b10bU, 0xa5dead08b32a472eU, 0x621b8272ca90ffdU, 0x1ad1c9142a024fbaU,
  0xe4ecbbe71c36ff2aU, 0xc5e6340bc7ab1114U, 0x59d2fa4cedc5cbd0U, 0x4430ddddde514e20U,
  0xfefe61de5f01c157U, 0xbb5fb9ae5207001dU, 0x7b6bf24cf4ed141dU, 0x1e37f1d2f93c42b7U,
  0x331ce427b824df20U, 0x4e3718fc6ee2c5e4U, 0xc51e33cb3ef336fbU, 0xee32ef43d7070943U,
  0xf8c5ae1601b80eccU, 0xbc17fef367936740U, 0xfe7fe5f1454e6a46U, 0x653a02e33c423ec1U,
  0xb43be5be06e83c1dU, 0xd725bf9a1fd35003U, 0x3833f92b07b94150U, 0x480dca5df83dff62U,
  0x32d3242d5fe949d5U, 0x11625b6cc336add0U, 0xbd68d0bfb2c73f0bU, 0x695f6ac83bd6c3b8U,
  0x27eac840326122c3U, 0x49beb067ec920514U, 0x88b5c1ed2e4aeb0bU, 0xfa616ef0a52739ffU,
  0xf5b4ead8dafa4638U, 0xf434333ebd090223U, 0xc3102face7e7fc5bU, 0x46d4253eb5c55da5U,
  0xeed7c436d1d9a5b5U, 0x8b79e1c258dd09e9U, 0x30d840fb1124ddd1U, 0xb4b8dc21ec18f49aU,
  0x2abb2096fd44c014U, 0xbef1d1360de4b920U, 0x34bcce3f50c8e8dcU, 0xf8b03206f30aae29U,
  0xcb439d2a64e33c4U, 0x3fb1fa4526e1ea38U, 0x9f35be3a42ef14afU, 0x1c50fafbdff6090eU,
  0x61c15bf690c9d145U, 0xc5ad443e27c8b8fcU, 0xa3f813c01afd830eU, 0x363aced963451700U,
  0xd30d403a4cbd64cdU, 0xe1fbc8a03523498bU, 0xcba6e3a701f5beddU, 0x454a1ee651b2ea5fU,
  0xbb3f032c07c2de43U, 0x550f108ae7ed9ceaU, 0xbd11bdd9c1332e4dU, 0x3c1c6bdf23a9d0ecU,
  0xd75b14b03f04ecc6U, 0x29ff089df6fefd2dU, 0xc1c94ae83bc36a17U, 0xd614e92d0badb5e0U,
  0xad1ba5dda7ffca3eU, 0xbd52cea1f6a04bbdU, 0xf24313ffdcb445b0U, 0x4fbf6221c013ddf7U,
  0x4125b92ad80fbefaU, 0xde0103fcb6fb4003U, 0x77f38b413cc01f4U, 0xd228fc33e8fb5709U,
  0xbd248633da078ed9U, 0x1c252defbd54ed51U, 0xe1722001d13550d1U, 0x59b57b550a3c26d1U,
  0xcc623ead31b1b0eU, 0xae20deae29d4a62bU, 0x32daa60e77ca2624U, 0x4230310a6d0a32c4U,
  0x50cc9c8d284821e6U, 0xd50ee59256caee31U, 0xd9e5eb4cedc2f1U, 0xbeeefedf42d80446U,
  0xb91a1814b2381adcU, 0xd102623739ef2e11U, 0xf4f6e424b54cd24aU, 0xade3d26abddbb0edU,
  0x3cd4b85f91e01261U, 0xabe2ca59403ce9f1U, 0xd6d849d6fa03313fU, 0xf5e9fe10f564dbb1U,
  0xce18404616d7fe1bU, 0x31e3345d3dfb1539U, 0x454ab80b5446ce25U, 0x3ae925f9233558bdU,
  0xd8c3d11345344e17U, 0xbcfef69fe747fc42U, 0x1fac0e570ccdddd8U, 0xcfe82808660dd6edU,
  0x3c03b358e520cbd3U, 0xbb04cc49f360f7dfU, 0x2bc4f850ae260fe9U, 0xe5f2ffc1fc041d1aU,
  0xeb1eeb09e849f0a5U, 0x33c1f1e820e2feb7U, 0xb881ee1626c740baU, 0x46be330942ead2f9U,
  0x54e43c2703fd28f6U, 0xcce5be64aedfbe25U, 0x1161ea3c0c492a31U, 0x355f5dff2d0b003U,
  0x55ffebce0d604242U, 0xdd2027b70644d220U, 0xefaacb082dc5c0f9U, 0x45c7853c3112b524U,
  0x96eb183bc238322fU, 0xd1a3e131cf0813c4U, 0x13a9bb3bf41ce93bU, 0xc0a7241eab17b4c4U,
  0xb1f536b3e02c2a02U, 0xbab5e9daa0d90b5bU, 0xeb382f12f421f056U, 0xa93739afc10fdce4U,
  0x912324c3812aea7U, 0xdf932c9fe174b44U, 0x9694f820fed0a39U, 0xd910e736edba5950U,
  0xc43051dbeea5ae3fU, 0x9f0005473459480cU, 0x110df642be4742faU, 0x3aa61b49039aed2dU,
  0x9ea1f20cd5764d5U, 0x36e83058e114ca36U, 0x531233fa271dcfb6U, 0xf536f51aedb8c64eU,
  0xf33eef36ef4fe432U, 0xe4abf4d5d0413ddeU, 0x6b1ee9f8ba1b2dd1U, 0x4cab2b03d9f32b26U,
  0xb74a2917dd497fb1U, 0xc5a83c37d5dd069eU, 0x35f6cb0e42431620U, 0xdd25ead81845dbd3U,
  0x4f572dbe346c4740U, 0x53281cc6e0d8e717U, 0xe8dd0415bdf634e9U, 0x4941e2e63854e3faU,
  0xc1104042fd0f15ceU, 0xf401f73237dd2b4cU, 0xbc0f0ad216f8cc34U, 0x173118ebf4c8c60eU,
  0xf427e23c00bf1740U, 0x954623b706d0f90eU, 0x49a00fe907d254e6U, 0x3adfe22320bd1fadU,
  0x2a100fcf37ecc8d4U, 0x85b4ccd62bca43d0U, 0xfd9206d706d7563fU, 0x4424cdbbd81ad957U,
  0x68e458e7daec0eb5U, 0x2f453f093847a8beU, 0x43b5ccfef7f9eaaeU, 0x15c63a2e1b330ecdU,
  0xe7f76bcdfbe657ceU, 0xbd382800b4f125abU, 0x29cfeb4ef1471df1U, 0x42ab9ee0db9bbb65U,
  0x62e86733093d0b22U, 0xc750422328fcc73cU, 0x250a34c947494fa9U, 0x410ae842b2f5370fU,
  0x4b2208d2403fef01U, 0xcd01c1da5040202bU, 0x9e1c282ce403d4b9U, 0x219a094de2ececd6U,
  0x22f8dd36ec201d90U, 0x96df1148723c4e2cU, 0x41ae90c8153def48U, 0xb4bdf73add3f02c5U,
  0xc2d96c81a7161d49U, 0x93a3f82ccae61ad6U, 0x6d40d9c5c42d0c41U, 0xd3fe48183ffaeebeU,
  0x15432927ab5add3bU, 0xf8f754d1cdb9adf8U, 0xfcff93a3b92e3901U, 0x28d0d83a221c4499U,
  0x52c14a3509b9511eU, 0xe15024652ed6a6c5U, 0xe61450c0d1d3a9efU, 0x344a19567161c470U,
  0xb2d3fff32805211fU, 0x4ce1e651310fa61dU, 0xa2fbd454df9403f5U, 0x2cd84b6500a9bf5aU,
  0xc27fe42df9daba5dU, 0x1099a41ea055dcbU, 0xe937dcb1d5f03427U, 0xbee9eef4bf25625U,
  0x6ec2a1bc50a41b1U, 0x22de95c3eb2206e5U, 0x4cc2d54c34002f46U, 0x54fc22a10b0322U,
  0xb44979618d4ede2U, 0x4935f8de4ac1cae5U, 0xf8a1c80fddc01630U, 0xfd1f9e2924a41804U,
  0xcffc8d8fa0e20b3U, 0xcebe06b956550e9aU, 0xed639de4f1540a16U, 0xa19f5adc37425a54U,
  0xd5a8cb50a58d134aU, 0xe5e4a9cbeb159d49U, 0xb40e0a5524602f36U, 0xedb65a09fbbf2e11U,
  0xb126e030e694995eU, 0xc59fe6a62349b4c9U, 0xe7e39bad8f8a44fU, 0x9b16ac3d04611e6U,
  0x3efb1d002b5107e9U, 0xfec3f830954ad825U, 0x8d67c7ab52b43f3eU, 0xc64d3625a5b654d8U,
  0xc78c1ac7c9181f57U, 0xee03c23cb4cd51fbU, 0xdecb84230440e2fU, 0xe7ff491415575435U,
  0xecb3b301d5ea00caU, 0x63d738e0bc3e45b3U, 0x2a29c92509c1f4d5U, 0x3de4e22025e92a0bU,
  0x374bb73528ad356aU, 0xb7e3b7c0ee292e0bU, 0xeaf52fb0011040c6U, 0xd5f017341f52cee8U,
  0xd32d01535a0e1e4dU, 0x12a9ee3642b524c9U, 0x43f751abd611b849U, 0x50ee470f0352c5dfU,
  0x3d39b608135cb82dU, 0xdce4d809b7dfa5d9U, 0x3b7f43e92ab8f82fU, 0x1cbb4b8b144a9aaU,
  0x5a461bb21c1f0c26U, 0xc326f7d162243b41U, 0xdabeaf05f6db21d9U, 0xecb9f9f7fbcb3ef0U,
  0x2e06bed612b3c48eU, 0xfff53c72d5f40badU, 0x5476c595e3bca2abU, 0x12ecee23284db2b3U,
  0xf10a39f3f3092141U, 0x1beea7094d48b305U, 0x1d9eb0ebdf5007baU, 0xfc4be6ebae4e9fbeU,
  0x534ca59d1c291a08U, 0x6a1352ee23eb34f9U, 0x3f3621f7ad3dbd18U, 0xcab2a0a452352fb2U,
  0xbfd827003d050724U, 0x4d503ee39761f408U, 0x7ae6b6ad20eab4b3U, 0x34e8e0dba33d010bU,
  0xc859fdb8b24b8b39U, 0xdde8d4144f212f30U, 0x38f6dd43d9b31dfeU, 0xe6b40c292554b409U,
  0x99cd2321f3a6374fU, 0xefbee05150cd040fU, 0xd0074ee216b7cceaU, 0xf9e2d73c49c20403U,
  0x3d4a57c5da5890b1U, 0xd656c2c545ee325cU, 0x17dc0af3ac114ae5U, 0x343cb9d74aef313dU,
  0xbd42ddfa930cfc6bU, 0xdb49cbafb757be9eU, 0xe212ee4581e3db35U, 0xbac8dbbcf619ad97U,
  0xafce03cfdd0f4529U, 0xb7f73bf3bf1900a5U, 0x495fbcae2d42ea0bU, 0x2333b4fe224a0e40U,
  0x51023a4454e9d3feU, 0x2820d6b02101142dU, 0xab20f8cda4afb253U, 0xfc1ead1722bec8b7U,
  0xab310dbdb3b074c9U, 0x4d512a1d33f93aedU, 0xf35990d270fa900U, 0xe82ecbb2c71b35c2U,
  0xd2782f10cc34b15bU, 0x162b563fcfb42fe1U, 0xce261ebc02e2c40fU, 0xe1b9050cf945dcf8U,
  0xc7e00250e0d56841U, 0x2a3e99cc304f1cbdU, 0x65f34e2e504859e2U, 0x62863f9b46bcacbU,
  0x8442243ae42f71aU, 0x2fc32c0655c315b3U, 0xf0e12d31ffb2f00bU, 0x48dbe84e5728faecU,
  0x14e53140fa460f45U, 0xe95f1da2b60ada31U, 0xd65133bbe74fad1dU, 0xc518595ff5614cb8U,
  0xc94bd70ec2523924U, 0xfa401ddfd46a4eb4U, 0x110181631e42b823U, 0x431526dc494dd2b2U,
  0x11cdce951efeaefdU, 0x5bd597485400262bU, 0x31d92248e63ff554U, 0xc60439ff3c06b0d6U,
  0x1fac8dae5c50bfeU, 0xb81a3515f5161b1fU, 0xe6ccdf6edafbc9efU, 0x190640264e1b03b5U,
  0xf1fe263dcc4d099cU, 0xc3ae205bd7eb16b8U, 0xc1c61831ae2b1038U, 0xdbf3c4c9cbd426b8U,
  0xb7dea691ebcee9c6U, 0xa19d9e4ccdc4bb30U, 0x1500dfb89e9ce004U, 0xdc05e7bcb5c3332cU,
  0x19d73e16a8251a12U, 0xce63cc383439fef1U, 0xeb9d2cb72a2e5dccU, 0xaab7cabf0fbfbc4cU,
  0xd5f0e04bf2b019feU, 0xff2c3c646f9f3eeU, 0x91aad101a3f70605U, 0x111a1dcf470ec2daU,
  0xb8c8c0bf3532d2faU, 0xafd2f2faff130b35U, 0xbd00d7b215a4161dU, 0x3541c5e0281cd3f4U,
  0x1ae0d1f131cfd10aU, 0xcfd8e0242ac53081U, 0xc829cae3a4c1c511U, 0x262cdb9cf1f50211U,
  0x3fa70db74b10cea6U, 0x4d04f847b9f8c2b6U, 0xec3dd6ef47f4fbf1U, 0x45be2e113fd1e126U,
  0xe711d2020cc30f4eU, 0x56e54f56c7234be7U, 0xf4425052e548fb0cU, 0xb0dc553d0dfc119aU,
  0x1fdfe69ffaa006b9U, 0xcd03842c7f14704U, 0x2aec43410caf10a3U, 0x6f9d7e5184e16f7U,
  0x22bbd0c02490f8f0U, 0xb935cbfac640f61cU, 0x8e102037d7d1401dU, 0xf631094e20d60ffcU,
  0xb19dcff83c401aU, 0x4b26c4b5d7d6e241U, 0x2784bab4e1efbeefU, 0xf016e4b8f8b5b04dU,
  0x4133dd44fe0f4339U, 0x3adc0640a913042dU, 0xfea0dc3a2326e636U, 0x1bbd08d3cefe19ebU,
  0xfa9f57dfd856d4dbU, 0x5add0a7f70a4e1aU, 0xa281fcced5a915adU, 0xf4f9dc53c5e2f8edU,
  0xda0442d64036c811U, 0x2e266215f1f915f6U, 0x4c3c38cb383fcdf4U, 0x69af4c7164de531U,
  0x13f7c4523b4ffb38U, 0x5036ce3616171b04U, 0xecb30e2d0ee20403U, 0xf1ccdfe0fe2eaf04U,
  0xb18e29651f09393fU, 0x43b601e6c0f6bf25U, 0x4298ef3a0be2c1daU, 0x2adf9239d53ecebcU,
  0x1fa0da1cc4402e04U, 0xcb294d27eeeefa4dU, 0x4207da25c9fcb9efU, 0x19ebf1a80cc62505U,
  0xbdb74af2c809b34dU, 0xb0ca39344750bcd7U, 0xbcd0f4f60747263dU, 0x2a3ec5ef28d90ab3U,
  0xcdf71c40d8f2f0e5U, 0xdc038ed431135036U, 0xfff9cd49bb1225f9U, 0xd716b11332fcf609U,
  0x3c4911a4fa1f2a49U, 0xc04a0d16da1be2e2U, 0x4c49f8d2222e1dcfU, 0x521fb1cec3ea244eU,
  0x423ce11ae7e2d0eaU, 0xe0d7d1d25016edaeU, 0xa2f2231d45ed37bfU, 0x29c93ad3161141d9U,
  0x5b24a125479c3726U, 0x433dcd9e8d6d930U, 0xa2f7182c102e1d07U, 0xf3a94517c752b9ebU,
  0x4b33fe590da637daU, 0x6d13dd218b8c3c6U, 0xb5f2eee6b80efa41U, 0x2ebce51b3b51c13eU,
  0x14bdcd15a1fffeb5U, 0x18032316d6c631d2U, 0xfd33b33cd2e23102U, 0x4334fbf5b6e1eed1U,
  0x3c5a98af2918e5d3U, 0xec17e12310cf3b2bU, 0xb1ed3fae45ebd827U, 0xea1024cad8da2744U,
  0x12052ef81323f801U, 0x2c4cb4fbc3b52cd5U, 0x48bcd1f44d2f0201U, 0xcf0fa009233baa07U,
  0xd9fd0deaada24ed7U, 0x3726f8320bddb548U, 0x47fafac3fa244930U, 0x22ddfd8efc32ec9U,
  0x512bca182fe31207U, 0xe9231def5628331fU, 0xaa1e54c319131ad3U, 0x4ff04dbc29f62601U,
  0x47adc2f55201e7b1U, 0xbadb37bb2c0cd43cU, 0xaab0ec08cbeaeffaU, 0xf28db4af14b04eeU,
  0xc9c72ac4e2a03446U, 0xc4f8c553810b261fU, 0x47f3addad208b31cU, 0x23f941d115c31fffU,
  0xd3f323ccac3cec0bU, 0x22c53dc960bdfd3dU, 0x15f0010f06fec1bcU, 0xb3e51a34d623cc23U,
  0x1bb0b00e65ce63b4U, 0xd1e2310dfccbabebU, 0xe14036e6f6503af6U, 0xead62bca082e02dcU,
  0xc9456d184204d2d4U, 0x3ea3112568a9eda2U, 0x8914100ccaecbb49U, 0xcb587fc1c7fd1d33U,
  0x4fed41def72b4e28U, 0x143a33be04e1e226U, 0xdb341f5fadb7db0bU, 0xfc43d09cf658fe4fU,
  0xdce14bc81e32b6ddU, 0xffbeaf212f102737U, 0x4503d6cc55bdee0dU, 0x3825e0b92c35e0b4U,
  0x3aae54cd416ae3ebU, 0xd3219b45b8121fcfU, 0x18350afb4a26cc1fU, 0x15c205484a1d093fU,
  0x1e8d402325b03dfU, 0x32e74cb6f4f9bffbU, 0xbfc7f3e8f2f9ebe9U, 0xa8d1a7cec8fce34eU,
  0x3cbcf2b6fb01e8b5U, 0xaae7b3a5c5490a55U, 0x328bad5ee31b0a41U, 0xe1ed58ca21da5525U,
  0xfb1fc2d08eb4f27U, 0xaa01bac5ddf80bdeU, 0x29dee54c43b5eaf4U, 0xd1ca26bf3fd84bd9U,
  0x38dfa24107efc2cbU, 0xd4283dc62a303ad8U, 0xf00604e0d32eccd0U, 0xb43b513005b822cfU,
  0x2dc0e4c722f1d82aU, 0xb6fd30afced5df00U, 0x535cfe04f837de21U, 0x51d2c1350adc3524U,
  0xabf1c5fcc5b4bbe5U, 0x2240ee3aeb26b9dbU, 0x2fd92bf22e2fed24U, 0xb744d227bed5e62fU,
  0xe30181cbc2ad1837U, 0xedea3131340302e9U, 0x18d3e903d705f4d9U, 0xf8211b05ccb64adfU,
  0x1042c13202f50238U, 0x37df12bbe3bab911U, 0xa3edede01ca00f0U, 0x25e41be217ff05cbU,
  0x18d48d17f80901f7U, 0xefd8250cb6ea32e1U, 0x7ed280aedb7fe07U, 0xb3dd05bff4cc1428U,
  0xf6b6e4e6c4dcdaf2U, 0x15331feaa5424292U, 0x1fd8f1be1ce20b11U, 0xe1bed62218fcd8f6U,
  0xd3073c30cce73affU, 0x3e14e721f003f5fcU, 0xc02fff11b9e00338U, 0x2e1b1737144043e1U,
  0x1dd61e46cd0b2e60U, 0x2859e82a00dc08aaU, 0xaee7f6c112f7e8c4U, 0xf4b8e310153ecc03U,
  0x2324460925a7e2f7U, 0xe7ffb366f7fcd4cdU, 0xd101f822311fc3c3U, 0x304db2db11d9e8daU,
  0xe4dbfa1bbb04f714U, 0x37df24172c3c4f38U, 0xed233f34562a2ce6U, 0xac0e0d5dc826fda6U,
  0xf6d940fbc2ca33afU, 0x9e937caddf6dcadU, 0x281c461dc8c90d3eU, 0xd648bbc31913de12U,
  0xf5ddd046cb32069aU, 0x1d40de15eb3de01bU, 0xeaf8df17bc4f2dd2U, 0xfa490ed2feefb1cbU,
  0xc903f0e03006d2f9U, 0xc2d346d53d422629U, 0x3f005030bf3ca2d4U, 0xdef9f63dc7b3123aU,
  0x2fa73a1b510e46afU, 0x45ec11f0f2b85005U, 0xf3150fe841a14b29U, 0x17da21a0fc0c161eU,
  0xba16fd50321f9dbaU, 0x46e6db0fa5bef2c3U, 0x27ab0c52d760c725U, 0xdf41131c23bd0b05U,
  0x210806bfe712f4f2U, 0x3ae6221ec2931031U, 0xc97f49e83e0e5708U, 0x48d9d1bddbe1e5e4U,
  0xd200c847de285a06U, 0xe22f1bdbdeb83758U, 0x44e1a2b8fb20d014U, 0x6cfdf10e4f5ea1fU,
  0xe3a000025bdU, 0xfffff5d800004941U, 0x2e1efffff2f0U, 0x36aa00000d7dU,
  0xffffff8d00002438U, 0x1c64000016adU, 0x12b800000746U, 0x1ce5ffffd3f1U,
  0xffffcd750000114dU, 0xffffeea600001ae6U, 0x167ffffd4beU, 0x4ee000011e0U,
  0xfffff62200001f8aU, 0x15d2000035dcU, 0x198e000007edU, 0xef000035daU,
  0x1d1123def9f8d832U, 0x17df5e264839f9d4U, 0xdf40f62fe10e0cd0U, 0x26bd3e4b1ce83d0dU,
  0xec7f3210dcf276dbU, 0xaebf22a30f30254U, 0xf7eb3bffc7ce48d2U, 0x462174506bf2f40U,
  0x38dde0ffe1fee0dfU, 0x2cc4e129fb033410U, 0x15c7dddf45c3ddc2U, 0x37e7c0b52eea1725U,
  0x5fb1033a9f37a6f3U, 0x1df1f709cf473832U, 0x59dba14b3c5de4eU, 0x1719fbdfff276748U,
  0xd156dceae60c653eU, 0xefa6bffbc1db16cfU, 0xe724b6dbf9ca34e8U, 0x1c3854d9d0d14dedU,
  0xbc26cd62a53bcaf0U, 0x48314711b722c642U, 0x90abc0065003f60cU, 0xe2661e291e2d0017U,
  0xec2e4dca0b6bc424U, 0x43b4ae42075ef6b6U, 0xecb79a1995e3d6c9U, 0xa1f3e050c8d0f5f3U,
  0x530bddbb9b3efb08U, 0x1b1fe7afbd42232bU, 0x30c4c45a2bb91755U, 0xe02f6cc065a482dU,
  0x2333b5b31228e131U, 0xa53f3fbdc5321fe8U, 0x92cac8e95bc9b25dU, 0xa65c0bac6bdd3ebU,
  0xdb0157c6ffc6b6eeU, 0x4b2ac519d836e8bfU, 0xfd441b50353c2aaU, 0x5a5f50c3cd090e5fU,
  0x14ad3db10f02052eU, 0xdd24b8d04fce2c85U, 0xebc4c90bb20136f7U, 0x5bb703e9fc3781faU,
  0xc83347b41ffdceefU, 0x5839debe1ea312ecU, 0x6345411d6fb0a13U, 0x25c0c2e3230aa844U,
  0x51cb31f5d3fbf1fU, 0x61acc23a030427fcU, 0xaded3ad8f3051240U, 0x61c710c10c0d8f05U,
  0xfcd9f9b86e5bc7f4U, 0xfe31a1315e26b0abU, 0x4662f3c855259600U, 0x29c4d795e7c5fc42U,
  0xfcb8eb0f2e1bd353U, 0xda168aee1ffeee4aU, 0xd81dbe48d716221dU, 0xeede0fe4041f1ce0U,
  0xaa0954790f4b3affU, 0xc746f0c046e4c3c4U, 0xf059fd69f343da4fU, 0xb3c92d63ec19aae5U,
  0x490af5b95ffbd65fU, 0x4ebf13294dffbcfeU, 0x304dce11bcb3e13U, 0x5124f3108decc4aU,
  0xaa1be7324d48ca34U, 0x4f0324ca2bc4f5aeU, 0x3237e04c3b442a22U, 0x25d95c3e433502eeU,
  0x1324f8fc252bcee8U, 0xc2e4c1b519ece737U, 0x1214d8eed32cd327U, 0xd90c12d8bb6a390dU,
  0xe6268af0100b08f8U, 0xf83cecc60b50f957U, 0xdaaf180a04f85e17U, 0xbedcba050338c49fU,
  0xcfc43bdb434307e7U, 0x95bceb15bd4da6c9U, 0xd413b937c0d72dfcU, 0xdcdfd3a6285a5d5eU,
  0xafd499333adb5400U, 0xc9d081d7e2c35217U, 0xb3ee371faef96050U, 0xec450e9aeb2828fcU,
  0xe31bff0207f1ade5U, 0x48302d0fbfba4869U, 0x9d25ee0e31c55d03U, 0x9c3ad23512fe36ddU,
  0x63b3a62a412647ccU, 0x8fae201ee0e57fdU, 0xbd2ca402edc7d84fU, 0xb6201ac5eeaeeb46U,
  0x2818c7c1feb3b007U, 0x481c28cacf4225b1U, 0xcc1da102f933e9e4U, 0x1712fad90e4e0bf3U,
  0xbaf6170ee505cdefU, 0xfee0a8cefc48eac8U, 0xa3d31933655f1abaU, 0xf069e9fc41ed04e8U,
  0x600bccf84508eaebU, 0x141ff755dab72317U, 0x12d60ecad2d41ec9U, 0x3cf228fa313bee02U,
  0xbc53adbdb56bf8caU, 0xf1cb0d35c5f9e249U, 0x953dbb7ceb5e409U, 0x2703348110dcece1U,
  0xf73425f9c22cccb5U, 0xf7dc041858f1a9ceU, 0xfe21ec6cc375c11U, 0xd254b5eaced90ad6U,
  0x21400b41ba9c221dU, 0xeed43bc63b1bef9fU, 0x27b7f6c7bb5005e1U, 0x2ce6e9bec74b471eU,
  0xcae114dcc80eb6d3U, 0xf40fe0cb3044cd25U, 0xf1243544aedca5fdU, 0x7c42f2ad94905b6U,
  0x4b433fedd33311f4U, 0xee2bd2cd29dcbc25U, 0xcee41221e4df11a7U, 0xe749db94a242e133U,
  0xdaf1fbed1dc5ca2eU, 0x1d711a45d0cd5304U, 0x35bd3b0607e327eeU, 0xdd5741aad9f12f0aU,
  0x39f4ea373ecf07ccU, 0xeca04748aa2deb4eU, 0x464d234fdec4d025U, 0xa6ed30847d2c4f2U,
  0xb44be5ed9f1f5224U, 0xe521bc00cbff7a34U, 0xce2ded391d50323bU, 0xd3bb0a5ba0b600aU,
  0xbca6ae46aef5b861U, 0xede02c68e8cae5e5U, 0x44262de245ee0df8U, 0x4066c5f00b31f905U,
  0xb6eb57e90d0c3ff5U, 0x5edffb57fc44bfabU, 0xe7d6fcdfdbf9c409U, 0x4abcbfca97a6d53dU,
  0xd23333344203fd0cU, 0xffca4df603003d2cU, 0xf2bb4628d30df827U, 0xfd5d4828d8ec123fU,
  0xc30352ca4313d5bfU, 0x4358fc0eb6fb12c1U, 0xeabb050f20d415f9U, 0x46133c68b83533f3U,
  0x3cbe59892525b443U, 0xe23cdb60565cc615U, 0x323ba7092fed07a9U, 0xdcc26c82edde90bU,
  0xdcd8080564130b09U, 0x29f14033e65d0b47U, 0xc91b07a73cd30a35U, 0xe860d8eaea562eedU,
  0x2117d3eaa3090c10U, 0xe1e0e2ee9ad8f2f1U, 0x1129a7c7f0500a41U, 0xbaff5e092a41eec0U,
  0x90aa2fce243915d4U, 0xe3b0cce4bfe2c251U, 0x17cafdfcb6f73d19U, 0x2a391f2222063ccaU,
  0xcc61e84fed3f37d1U, 0xd2f7d6d78a5dac77U, 0x52161255a2202c11U, 0xc4275154fef9424dU,
  0xc54543d4dddad8d9U, 0xd0305519d6deda28U, 0xf628a713d646bc0dU, 0x1ded7f5cf738f526U,
  0xbda427170125f231U, 0xf3380218001aecbeU, 0xb9f7c7ede1bc2ae2U, 0xcfb8e5f9f914d628U,
  0x481ee6f4d03ea8cbU, 0xa23961c6ccd3c6e5U, 0x7c62f2a53d2150fU, 0x1ec6f8d19dfb0fb6U,
  0xd342cfff0c0ef5ecU, 0x3b06c6c1c907ebc1U, 0xbf03cfbb24142f3aU, 0xcaec11c80a0b1c81U,
  0xd0e4c3f4cfb8dae5U, 0x2e46fec64531cfe0U, 0xeb34e90afb32e316U, 0xf4e59947e5b4ecd5U,
  0xe2e107310cf81450U, 0xf0140907e9f10241U, 0xe915dc43c722c422U, 0xe0f313900903e118U,
  0xe51716e73720154bU, 0xd4d2402130e6f2faU, 0x5cfde1d0a41d9e8U, 0x15c32deefc08bfb7U,
  0xaf9847c3f70fbfecU, 0xf4e6f1c2c860ab10U, 0xf9c7581333ef2a4cU, 0x4297d133ca301523U,
  0x4a492747c8f0a118U, 0xe6ff12f8e843dd04U, 0x3bfc22cee50247feU, 0x8821c9b1e5e045f9U,
  0xed4cdd474b07e737U, 0xe5251027d738e8b6U, 0xe90248b522312dbeU, 0xd10a50bece393fe9U,
  0xc4abffd1463cc5U, 0xabbe3c3f503e1fc2U, 0x31f4b90ad1a4f627U, 0xc0cdc55346a9e444U,
  0x48574af1e0f4060bU, 0x43c5d7f7d5e43352U, 0xc0fcf103c4212eU, 0xf1cdefe71412bf4cU,
  0xcb42dccdaf4955efU, 0x13aa6044294ed6fdU, 0x122eeef8f2ddf013U, 0xef70e144db738d1U,
  0x2f14ea2fed1adcd3U, 0x14c120c0c2cf3cfeU, 0xaf1fd9903b1c913U, 0xeff408d016ea8135U,
  0xe2efde311a351df9U, 0x26b6edf8eb191d1eU, 0xe022e41a0f0dd0e4U, 0xaedff5b0231a9740U,
  0x40d249e818e2650fU, 0xcd0bceef0705d5eaU, 0xd2cbbf2bfdfbca14U, 0x22cdc3f7f4369550U,
  0x3a151de911372be7U, 0xed2d60de1df110b0U, 0x5ce9c94a28c4d313U, 0xcdb041324203a0c8U,
  0x2b1732cf210e292aU, 0xeb9091313d0de21U, 0x90ab228d2dec9daU, 0x27e608adce07dab8U,
  0x3c28f52834b3cd1bU, 0x35bcf13fe733fcc6U, 0x16053c2ce302e0caU, 0x2f0a35ec2e32e704U,
  0xbfce12ba464ed8eaU, 0xb3e0bf0bbfced741U, 0xe2bb02ff0b401b8U, 0x5a26d21713ddba1aU,
  0x341beb4545bece3cU, 0xe9d701e44a84f2daU, 0x57fdd1d044d5e208U, 0xe4ffaf544e71cd4U,
  0x325b91fc3223f9bU, 0x4abe9437bb2cd024U, 0xd82081c9f2cc0932U, 0x397b7fd2df53cceU,
  0xd63ef7dce359461cU, 0xc4b92baec7e3ccc7U, 0x2de8fbd92fcc2740U, 0xefbf06402eccf347U,
  0xc733b8bc0f40eb27U, 0x49d3121c260aad49U, 0xe325d92ac54ac9c9U, 0xf2ba9b436ea65045U,
  0xc0b0e8a6fc29c7a3U, 0x53363a3433f60b1eU, 0xc8cbc8fe31be085eU, 0x33abf0050afddc92U,
  0xe6060dd4e5544eccU, 0x994c46f40eee36d0U, 0xb4d100f90ac416e2U, 0x40331d26091ec15aU,
  0x2cf925d100dcf10bU, 0xded53fada845e2f1U, 0x44de3eb60bb60638U, 0xed19fbfcccffb314U,
  0x5111c5249b34e2ebU, 0xfa11cfc3a01d901U, 0xfbcb38b71907b23dU, 0xb74e195354bd45ebU,
  0xb7ecd2d525f3e3a6U, 0xd009d5b8beea2cbfU, 0xd412c9d42ea88beeU, 0x12ac9f0022f5cdd2U,
  0x50ecddab307fe35U, 0xb7eeddbf00283ae3U, 0x14c4b5ee19e4d33cU, 0xbb2806d856f9f13cU,
  0x4f320320eeb532cU, 0xd0c9e3041eea2b43U, 0x27c8eebbcbc638e9U, 0x20b7cef607ff110aU,
  0x24bc2a342106fdd8U, 0xc539bc81ef09df00U, 0x2f5bcf2c521d7daU, 0xdcc0e0d0e2e21538U,
  0x17b2dde62145d9e9U, 0xc4f9bed203540fefU, 0xb0ffc046fda710beU, 0xb8d6b7253e21c8fdU,
  0x1612b92c0b0ffdaaU, 0xf9db0859e2291737U, 0x2f393c0725c0fc41U, 0x2efe3765da2be41aU,
  0xd8dd06141f1412f2U, 0xc428eacc3941a7b8U, 0x5ee50ddc41b12dcU, 0xf0f8a7abdaf5faccU,
  0xf2c62706bf253a24U, 0x34a113d20621423bU, 0xbcd4b4c91d262a1fU, 0x1ee3d1ad023d2a2aU,
  0x2ef2ce1c21ec2b3dU, 0x1ae6c2f71b1eab1cU, 0xfaf91104011af9f0U, 0xeb45ca094995b5ccU,
  0xe04cf41913e1bfa9U, 0x27ab2df1f10c5a34U, 0xdccbb9af3b99ec02U, 0xc1dfcb5df86f07f8U,
  0xeead0488c5f3ce0cU, 0x2f34b741da3448e4U, 0xdd0a2cea5ae3094eU, 0x2dfd22e1a590f98U,
  0x83cb4afb545bd38U, 0xf20f0ce7c0111be0U, 0xfef61b482e2f591cU, 0xc0cafc04c9e21306U,
  0xf0134301fed32f0cU, 0x352e3bfe180c20b9U, 0xb39005d4c5f2a83cU, 0xfde22a1accb128baU,
  0x1b2bfbc00ae5b116U, 0x21e448ff07521b21U, 0x819bb40ed9ac320aU, 0xbf37f4f7b147f996U,
  0xe06bd6c0dffd2c3fU, 0x6c1e48e7ac1dff3cU, 0xba4118b23c3fddf6U, 0xb4d40de20b4802a3U,
  0x331b9ce4e312d0dU, 0xcd0d72ee3d6f71edU, 0x231563bd38d4338dU, 0xf3e106024c409c3bU,
  0xdac8361939e327f6U, 0x310f4dd6fedbdbfeU, 0x43d5379a2ae7c6daU, 0xbc2b1fedccd4c14cU,
  0x9f63ed1530e3dbe2U, 0xe24445aa57313adeU, 0xd2caa191dd17dec1U, 0x11d9fe63a80f48b7U,
  0xdec601f6cf41cdddU, 0xbaf41a9b421f0c3fU, 0x6c2f30fbea62bd7U, 0xa4faef07fb46c4e1U,
  0x1b272afee8c6f105U, 0xbc02b705d32dabd4U, 0xf8be47e459defa25U, 0xc4d32eeb271949dbU,
  0x9130a5c12d3fc22U, 0xd454c43ac91033a6U, 0xf5f3ead3217fdb02U, 0x67c2d8b3f4e6d4eeU,
  0x183f30e24611e6e8U, 0xe6030033be26b9adU, 0xbd0e5017d7b5d433U, 0x9ef4d51410d4e044U,
  0xdfa5c808c7fedaebU, 0xff98e2c93e45d341U, 0xc43ba7474c35ea0aU, 0xfd10d423f91435d1U,
  0xff03c305b9db27U, 0xdce28d3257a223ddU, 0xbceac6c56644baU, 0x72e3b9df22beb6d2U,
  0x371ce2373d37d401U, 0xcadce3e4d739234bU, 0x524f805b7c3fe16U, 0xf32642a4e85ede04U,
  0xcfe82cc80ce21044U, 0x2228c3c7de4fd62dU, 0x56c635c2e80b2dd6U, 0x1205bbb4d1c2f9cdU,
  0xb645d9233a261bdbU, 0xcb063dbfd00ffa4eU, 0xd102be44f93d02c4U, 0x6ed3edbb21f029bU,
  0xcce1d34a420e2317U, 0x59ca55c40b08ef07U, 0xe127f34a0e473f24U, 0x1bcc25e306280cdfU,
  0x9a26262e34374203U, 0xd206fa0f090dd812U, 0xc81ee11c4144f114U, 0x2dc0c2badcb4ed15U,
  0xaebc090c55fe2f57U, 0x2434e3fb3ed9c807U, 0xf7fed131a73422f4U, 0x4147f9d1c5dce8d3U,
  0xe0c832d9ab010242U, 0xadb52dee1626e73bU, 0x5bfe2c0af3d84b2fU, 0x37eda8490cc705c3U,
  0x11142aab29263d38U, 0x1f235ffba2ae503U, 0xcdf22616dfb3d0beU, 0xd4f6fbc6261ce103U,
  0xb310530dc53de3b8U, 0xeac201e1c532dbbeU, 0xccfce9fce0b9c138U, 0x543f390c27f3f418U,
  0xb4b02f27f3e51d31U, 0x4c1c25d0ff1bcf3aU, 0xd638d6f91006ccd5U, 0xdf9cfbde0ccf2c25U,
  0xc3c615e41c1600b6U, 0xc318541db504f6f1U, 0x4aef083600e7f243U, 0x981cf540de4e3eaU,
  0x242cfddae332ee4cU, 0xd7e0ba0cb4c9bfc8U, 0xf2d1bccece2011eeU, 0x16b1c82be8e541baU,
  0xa4fe29becce5feeaU, 0xbf0efe29e72421feU, 0xabb0111f28250f3eU, 0xd0498f3f1616ede7U,
  0xd1242f314d075041U, 0x44842918d9dddb14U, 0xf8b81ce258d4eeeeU, 0xf978b425b63a0248U,
  0xdcbf37dd572326d1U, 0x1ce95f44b6f8d832U, 0xeab405bbe3b0db21U, 0x2b2ae617f8ccd40dU,
  0xcc3618ecae28fd18U, 0xd5b1be30e3c5fe38U, 0xeb2d26c40bcc100dU, 0x8d222e01b2c1648U,
  0xae29eb2f1bd5e7a2U, 0x28db200759cedbd8U, 0xa34cbd27f716f139U, 0xcc24dff006aa2102U,
  0x26a1eb52dbf9e0e0U, 0x81a0494e30c11539U, 0x6b919b2f9cc35d1U, 0xcb493f10f114d219U,
  0xe8141a09f00aede7U, 0xe5ee0645eb3df3e8U, 0xba473ed8df26a5e5U, 0x3548ffd1d5a94825U,
  0xdbe6de543f5c3f58U, 0xf094720342529faU, 0x460ef60aac49c113U, 0x49d16d44ebd143ceU,
  0xaaafe014084b2fedU, 0x21f8c4be1b30e4cfU, 0x3915315407bd0db7U, 0x31192112d83630fdU,
  0xf6bf469817310051U, 0xf6ddabd56b53edc3U, 0x2021fb6c99c5e6f0U, 0xc34bd85cb6da4710U,
  0xf414f90ec121a14bU, 0x58e6a701b623914fU, 0x601e3bf0b808dd58U, 0xeef62c2507345848U,
  0x32be5aefc33bccd3U, 0xd0ff1746ebe8a8deU, 0xb533dc2ce63d2dbeU, 0xa649bad6ce25b0c5U,
  0xf5d32aea1d35402dU, 0x11e0bf0d31ae10fdU, 0x4a1d21bbe25b021eU, 0x2543330869ac3e2fU,
  0x24283455fbd70630U, 0x1af1ea5aeedaa7dbU, 0x52101ed6bad1f7a4U, 0x6ee459911a19c964U,
  0xd04ab208d7182ac6U, 0xc3119db0a654d34U, 0x4627ff3b96a3a354U, 0x4dca1728f5c100f0U,
  0x321922d9afbcbd18U, 0x230f2dea054ca939U, 0x41eda3be15f80ffbU, 0x11a532db6a0f35fU,
  0xf576b280826fbedU, 0x171407cb1245414fU, 0x45f623c90a330a5fU, 0x54ce6623d8541761U,
  0x2a134feddc1c6004U, 0x3a2ef8d40dd50311U, 0xb64eabbcec28fa09U, 0xe72e3a0e7f2beae7U,
  0x8105c92206003319U, 0xcfb317e25d52b917U, 0xc3526aeee1f4fedcU, 0x5117f00ce5ff3becU,
  0xedb1ff563ebbda05U, 0x36155df5fa3fe237U, 0xe7f6c5159ad91256U, 0xcc38eaf301045ac7U,
  0xd30ede2143763a27U, 0xd83746172c0234beU, 0x32a309cd5438280dU, 0x3516270a1ac3d1ecU,
  0x40160f321520cc59U, 0x17e9d0f12ec3aaefU, 0xe0effd3b160aed3bU, 0x4f2e0fdfb8db5f0cU,
  0xffab51f34d2b3027U, 0x39afcef0f9a1e5d0U, 0xf156dc13a299a915U, 0xfd52d1fc11e3e7ecU,
  0x35d348363724d036U, 0x33f74b10152e3a14U, 0x2208432eb0cf1b26U, 0xac0c42fad2d3db2fU,
  0xd7eb26db49d63e18U, 0x28bd2dfe01cfd01fU, 0xb6b52314cb340f21U, 0xede1512430eaf630U,
  0x30b11bb658ffe3eaU, 0xba9d03e9d1a1808U, 0xae3de0c8af0aa3baU, 0x77143b4d8a654fcU,
  0x522b03edacd1540aU, 0x6b4dd3b9de6d763U, 0x19b8db17d7a2a33eU, 0xec1bf73df3f241afU,
  0x31370bbf5b1366dcU, 0xd21e1ad7243babdbU, 0xa60cf265eefafeb4U, 0xcf0acf3cf0e34ebeU,
  0x37272fb10a0d3031U, 0xbe2a271da0ccb32cU, 0x320200273644e306U, 0xe91d1fb3a1fc31ffU,
  0x13ecfdcab55322b0U, 0xbffad0b2242cc7daU, 0xcdcf5ea211a905ebU, 0xdbf0ca862107bb3bU,
  0xccc03efa3cff05cfU, 0xe12b4f141a250344U, 0x32d8af04f31105dcU, 0xc4cd53c236042a32U,
  0xe04b3998bf2947e2U, 0xbb0cc10ab924b138U, 0x2fe4d50f9723be33U, 0xa4b6f1e1883fac3fU,
  0xfe1d5afa08c91c27U, 0xff190e44d0f107cdU, 0x8fe62bbc1ce4daebU, 0xff1207d817de99c5U,
  0x12ee7f1162373564U, 0x3ffb3c46379c38d1U, 0xcdb207fee1e3580eU, 0x1dc55ffce605f7f4U,
  0x155ef3443a1a0ee0U, 0xfc0753115ad20c33U, 0xde06db7cd0cb612U, 0xc058e41339da10f2U,
  0x13f00244ec3cf855U, 0xa93a0feb36e011c3U, 0xb8faf03d47cfdb3eU, 0x403e53e91fbf8af4U,
  0x42af0f12eaee19feU, 0xa3c212ec14f12bfdU, 0x36f7f008ea2e2309U, 0xbb43fdfa115f3f1U,
  0xb50f51f3bad23b2dU, 0xd4cd3900302afb3dU, 0xecef1720d2144121U, 0x3f09accb0ae52e13U,
  0x17e5bf2b3b2d21ecU, 0xd7f50af01a2cd4e3U, 0x4a94f113bf0c9ceU, 0x1522380e38fedac8U,
  0xbdf365da3f1f23ccU, 0xac33acd933f00ee1U, 0x2ddca73f2d97bb1fU, 0x2d1c25e4fa333258U,
  0x251922ce265728b2U, 0xa9c3150ef745fdd7U, 0xc9e1573733380c2aU, 0x1f9f3088ecb2d2daU,
  0x19e20ff3b8c8efd8U, 0x814468e338c22028U, 0x7a10037c4334b54U, 0xe4e1e0e7591029a2U,
  0xeda02f422a08ad3dU, 0x9611a544c9c3d639U, 0xb007fdd0c0a14a23U, 0xc72c2f64c9ecb4ddU,
  0xd6b345cf013c44e6U, 0x92b8fbdc4c03bd36U, 0xf3fd040f8ba70609U, 0xdba403cae633cdf5U,
  0xb89faa0d6235da34U, 0x8c24338126742ecU, 0xfc16b69f40b13bd4U, 0xd3a74f4fd3a33c19U,
  0xa029e327cc290cfdU, 0xeee30fcef425d4b7U, 0x34f31bc913f81610U, 0xccbef694e3f1dc23U,
  0x9c32f7c5f91a0832U, 0xead7f309dcceddfdU, 0xdae7c9f81e0af8e1U, 0xbc8bf81b933d24cU,
  0xf4ac4f1df12cb00aU, 0x15e4102dfbd9da30U, 0x101901ac01330bU, 0xf524f9cbdaf3c0f6U,
  0xb518e609454307e8U, 0x8ec3d3c2e235ce2U, 0x2ce845f641f8c6d1U, 0xddf83df7c50ded3bU,
  0x18d1eebd0e08d316U, 0xb6ffd4f82c23f31eU, 0x1117c1f9cf1ad8b2U, 0x20022ddef6eec84eU,
  0xff05e62d09341cd9U, 0xd9f2fc25e1d70dd5U, 0xe2c808ed1926c3a8U, 0xb9cc5cf6c9c4c0fbU,
  0x1f31dde414dcf515U, 0xaf01911e71f0e16U, 0xf4b5fe32d9e0dfe1U, 0x450721e8e2180eebU,
  0xf6334cfffed3072cU, 0xb9d718f03d1755e0U, 0x27402cf03e24311dU, 0xf5c73908e5b00b01U,
  0x30c2e81a05140d27U, 0x35f526e7f5d2ccccU, 0xeef03e280bed180cU, 0xf7bee6c2ff230d4aU,
  0xe748d3bd092fe503U, 0xd45d9ed75ad70ef5U, 0xf4203eeacd54bdc4U, 0x469dfe39103098e5U,
  0x47ea0e3336fcf520U, 0x3aafe6c038f1bbf6U, 0xdd4846a7d238bdffU, 0xb1fbec2acaeda0f7U,
  0xfeb1c9e82bedd41dU, 0xc505f4bbd13fc0ecU, 0xebf9e3b7d1cbb8e9U, 0xc72e2118191ad0cbU,
  0x34b63e08b1e0c3ffU, 0x12aa28e0d8491fb1U, 0xf1f32d0970405101U, 0x1b53f5b730000111U,
  0x3d61b58bf3e1801U, 0x3e9c01c445b1f236U, 0x812936da0603ffe0U, 0xc00b3d1b119df3adU,
  0x211c48e8e1014fedU, 0xba179cfdc947cfc0U, 0xe51518eccc5b0030U, 0x667398d14bbfa906U,
  0x27ea41364bc502d4U, 0xe6f945eced2c2e45U, 0xce083d721bc11469U, 0x7268f1f3019471fU,
  0xe4b215c207a81040U, 0x3a2e5f5aceaa00fbU, 0x64d524256a3ec5c0U, 0x5e44c02cbaa6eab0U,
  0xd331649f6810cf1U, 0x5eb4ce54e7592e35U, 0xe78fc721d46452b2U, 0xf9f6ace3fe86a7a6U,
  0xf4e7e8e4dd2fff11U, 0x8de31452afe1e2dU, 0x49f7091ba0df1be6U, 0x35cf1be7ecddf2ecU,
  0x16fce8dc224dff42U, 0xc92933daf2252eebU, 0xcff20440d623c321U, 0x35c8d5d50f41e230U,
  0xcebdc918011a383fU, 0x3010ae31c19d504U, 0xddc536b7d622cb1bU, 0xfffcd9171a2c401cU,
  0xae3bcacd35456421U, 0xc2361a421d0c4fd2U, 0x509eec1f20e301aU, 0x431d0a07ee0fb1e0U,
  0x30252837ddf61ce4U, 0xc0f92bef3b390b08U, 0xc6bde3c003071520U, 0x43f01be5dcfaf7e1U,
  0x441326f93822100dU, 0xdabcd7d8cdf3d00cU, 0x152f4ee2d103d3ddU, 0xd7bdeff0ebcf02deU,
  0x135dc1308e2ce17U, 0x1aeeea0524da10aeU, 0xed0e1d042b0fb03aU, 0x11498113cdd015d7U,
  0x23e12ae6dbcafe36U, 0xe43ae727fcb8e33bU, 0xc2ebe02e242dcdc0U, 0xd62daef3eb012cc6U,
  0xda3b402cfbc5ceeeU, 0xbdd2290ed0db3e29U, 0x142a2fd109fc0dd1U, 0xdae32712dde71f08U,
  0x160ded3306071df9U, 0x20cbef2decdaece7U, 0x3fb615cb0ec2c5fbU, 0x312f322135e5a0edU,
  0xca1d340dfc0eeddfU, 0xe7efa5f6aae01bb4U, 0xeae3540b2f98251fU, 0x411003e3c810903bU,
  0x58b3d9cbcf3938edU, 0x472eb046dc12b6d8U, 0x1ac3ecb5f4fcd2f5U, 0x10133bdbdabdd9d9U,
  0x521a50fb540f573cU, 0xdebc9065fcd4033U, 0x502d2c2421ad2332U, 0xf3341e140ed429baU,
  0xf4ac1b391ef017b5U, 0xbde53424ccd710e0U, 0xb9262807aec8e631U, 0xeb4930363b55303cU,
  0x22fc5a3b16d13409U, 0x3ed50d54bd415605U, 0xc41c03ea1c06dd07U, 0xf0b25d31d39382aU,
  0xe5f7d73ef32721c0U, 0xbae01354e1ad2441U, 0x238d6df1be02632U, 0xe9b7e0da4f1918c3U,
  0xd946cc20ec06564aU, 0xa21ff5e0221ee2c9U, 0x1e03ebfc11ed384cU, 0x449c2ffe5248302U,
  0xb9cb2407c0d3e61eU, 0x16e50e5a35de0a29U, 0xc447c13c380a0ce8U, 0xe707edff2f81dd1aU,
  0x535fa4e9aa33134fU, 0xfeef7a1a16da8454U, 0x445240d6ff085cU, 0x44bd3f810a0db20U,
  0xc06ef9abe622d7b3U, 0x11c353f7dcdbd0b0U, 0x4a58f03ef8363d31U, 0x12e717fa4b310360U,
  0x3e45d73cbae6db36U, 0x44c5ea03fc383598U, 0x640709fad81a25ebU, 0xe6155d4972e4c241U,
  0x45a4cface95f41b3U, 0xecde04ec141d0d05U, 0x2d351ddd5c5a4fdcU, 0x290af4b83117a92cU,
  0xb3c1d41d0ee8b8fdU, 0x33a07d52cd0d30fU, 0xfcb94a353a4ae985U, 0xa52024f28f26c0a8U,
  0xd5cdb4de20d581d2U, 0xf20ab4ceffd539c6U, 0x4de65922492abd5bU, 0xb8e93cd9e223b3f3U,
  0xf690d8f7fd44e98cU, 0x9bdb1622caba930dU, 0xd7bb59fe33df10e7U, 0xa612760b9cbbecd9U,
  0xf1b03b220e180fefU, 0x28eb4b3ba7c5123aU, 0xd9db405e25f5a642U, 0x16e40d0396e651c4U,
  0xc9bf79b0dec711a5U, 0x2a0392dfba16a320U, 0xa5310f51d0f00847U, 0x850146b8060854c4U,
  0xe8b65319172bf2afU, 0xadfaff4bc7f6da1dU, 0x44dac0ec0cbcce2aU, 0xc931d917a202c8caU,
  0x335c0d2ae1ee30c9U, 0xb011ee490ad53af1U, 0xe5bed7af38d3be1fU, 0xbf58cd42e5aa31e1U,
  0x2e3db92829effde7U, 0xb7d4210355def8b5U, 0xfde5e03727dec617U, 0xbf41ceefc830e91aU,
  0xc1c001fd26b31107U, 0x382eb1e4b737c2c1U, 0xf0ff50f1ee6cf49U, 0xe56fe1130d1a4fe1U,
  0xe8ef0edfc7d9f2f5U, 0xe750e8fe3e272701U, 0x45e5e817faffc5ffU, 0xeed42feb9db0784U,
  0x9933fbdfd810f6a9U, 0x3f213bfb1f3a7cc7U, 0x2c17232736fe25a7U, 0x2d0bb12a26153bf5U,
  0xcff9d018b536f825U, 0xdfc6bc829def64f6U, 0xc84e1cbec918c6d1U, 0xd4dde0cacc4730a5U,
  0xb44dba7d92be9b3U, 0x1b54efffb42abceeU, 0xb4dc3b1de00cb8faU, 0xcf2abbc7fb677fbeU,
  0xd9203ce1d603b3ddU, 0xe236dde320fd2530U, 0x9f1ed3ee1a3de4e9U, 0x132a393129a31bfcU,
  0x2c10e1dbd1e5b0c1U, 0xfab01b25da609cf5U, 0x74e5283da6e6f2d4U, 0x6fa5f72d512a64deU,
  0xed28fd3528f42a3aU, 0xe4da4a393b70c329U, 0xcfadedcea7a5e030U, 0xfdb69a0e042152b2U,
  0xcecc3aa01d404f12U, 0x7f2309011064c5c5U, 0xc2bd1061bd1d4a11U, 0x51be32425c0d1e56U,
  0x43f9b9ae53fd1023U, 0x5ddc3246fdbaabfbU, 0xc0c802600faa20bfU, 0x2d2db303036f364cU,
  0xf929fea81b30b318U, 0x56b5ebf8ff351f0fU, 0xca114f46b4fed2daU, 0xfbd00613002fd7d8U,
  0x44d00f9b015843c7U, 0x24abf313fd01b7a8U, 0xb10316f3ce2410b3U, 0x40e00405e14f2517U,
  0x2214c2ce2c088e3eU, 0x4578caba1fe1f142U, 0xdf18361fed542aacU, 0x51efb1f4d358e322U,
  0xccc3fad06e0d5d9U, 0xffd6b21b0233df48U, 0x4912add1263b9ccaU, 0xe6ecc8f427d6fb1cU,
  0x2c352904d933bcecU, 0xffcff021045f5b6U, 0xf0eaf3ff01201eb7U, 0x341331d420f4b2afU,
  0x47efd217eee4e7d6U, 0x4dfb3e37b61dc1e6U, 0xe1ddb8dc1a14c8b7U, 0xd32a9910acf90120U,
  0xf3e9f22a75f932bbU, 0xf5371de0400acacdU, 0x12cffa5700395416U, 0x361721e8f44011ecU,
  0xefe51ce248d50552U, 0x12478133c525b015U, 0x882c7f81db7d63aU, 0xef8ba99af2db332aU,
  0x3fbdf114f3e06feU, 0x3213f2bee1ddf743U, 0x427483dfc09131fU, 0x31feca2dcc63ff3bU,
  0xfc42eaaf705413eaU, 0x20f2becdc91d3bdeU, 0xd13c40dc54c62f29U, 0x2ead2019d6343edeU,
  0xfc1eacfa3fbed95fU, 0x2830b63e41cfcbc8U, 0xb52fe8e13aae051aU, 0x4622222655e0531cU,
  0xc8d82be9695327d8U, 0xf029321db7e91e56U, 0xafe7c31e9dde22a8U, 0x4a06666820d4deeaU,
  0xcdfaebbf63fb0fcfU, 0xd31017c63e0498c1U, 0x25152430ca453ac9U, 0x330ed019ef1e3315U,
  0xccf517051c0ab3deU, 0x5126a64c1aabb30aU, 0x43babdcf23dbf528U, 0x214dcfef0cf01a33U,
  0x16fbe6f9d30b0437U, 0x96ba3de4f7eefc5cU, 0x191c5b39df3e18a3U, 0xf91b1c13ca5c0330U,
  0xc8ec220b1f16d4f6U, 0xdd25dd40ce5518f2U, 0x3be7e924142b2907U, 0xb1263119e0cf272dU,
  0x2b255829fcc52cf3U, 0xfcb1271ef2d22cfbU, 0x1531380fbe3328f9U, 0x13f907a1d715c52bU,
  0xb10b1df3e5e11853U, 0x1ac30ff2fe231be9U, 0xc3e6294b2b3c4b04U, 0xb32eb3c3bb3020e8U,
  0xef300a070fd8d3b9U, 0x8140d5cd460137eaU, 0x3fc6e6f6e94fc6daU, 0xb5c701ceacebd5c4U,
  0xc0322d2e28cab12dU, 0xe9de243ce4cd23d8U, 0x2d8fcbb1409d99dU, 0xeb3331e1b2e6103fU,
  0x2a2c7042d0cae412U, 0xf2805c5022fb221U, 0x2d2850d007eabaebU, 0xdff42c9797eb4bc9U,
  0x10045230df14daf4U, 0xa445251902cff8cdU, 0x3fc6f32abefec6f1U, 0xf244b9ffa5dd369eU,
  0xa5f6261fc00c3301U, 0x340b433d0be137U, 0xc23a0f17271cf0eeU, 0xc5afb49faa21e5cdU,
  0x3c90e22f9f7c90dU, 0xf6e727f152d0e02aU, 0xcda23e39fa2428deU, 0x18b7172d350a33f3U,
  0xdbf8473afa5be916U, 0xd2f21041b1a61e8U, 0xbac1283248f125beU, 0xe22718c214ef4727U,
  0x43cb032cdd4e130dU, 0x95a42d08110e1a09U, 0xcd1c63c2f45fb0aU, 0xc332fa9035fdc134U,
  0xe1f1dbeced42b7caU, 0x92b6fce02fe6e246U, 0xd29c45427fc243c2U, 0x2b1ae3010ce359d3U,
  0x4cec272dccb0a61dU, 0xf907faaff114fc2eU, 0xa8aa1ce9d5472ad2U, 0x2a1dcac60ddcf5e6U,
  0xb61a473029cae938U, 0xb8d3c9072be11c0cU, 0x5280205c62823beU, 0xc2b9efe620c24e30U,
  0xf1ed33e0a512d4faU, 0x1a10c2b3bd05dee9U, 0x1ee1e9dcb5e50031U, 0x24c2e5cb95f23e09U,
  0xbf27cde00701332cU, 0x19cebae7b032ac28U, 0xa016d2cbae2907dfU, 0xff06f602b2eddc8bU,
  0xb4e7b83fa2b8c919U, 0x2e21041442a9f5f1U, 0xdbd6400a36cd2fc1U, 0x2944892fac39dfbaU,
  0xf2aeb201eaefde18U, 0x171eeae44f2e4ca4U, 0x2dcf3447d5bf9508U, 0x19c847d3c3eb5ad6U,
  0xfcfcf561601e9faU, 0xefde25520ffb0b1cU, 0x1dfc33c9550fe201U, 0x31bb9bcff70ce1bfU,
  0xc5e6f8cdc7260ef6U, 0xda2b191036abc6bcU, 0x2efff031340d2eabU, 0xa29ea0fcf0625c3U,
  0x169e58fbc021b4ecU, 0x43e95ed2b454dd1cU, 0xf2e8f44ec9c3bb33U, 0x2451de62c5c6c44aU,
  0x881ee64202441104U, 0xeada54ef09debd21U, 0xe5d10909dab2bcf6U, 0xc827e8bf38a30507U,
  0xe02c073dcccf17d8U, 0xd4c1c7f41819f6b2U, 0x1ce73fe90c1d3bdaU, 0xd34a10cf20530aa9U,
  0x1ceb00cacdfaf426U, 0x555a6cd8cee0c62aU, 0x2217dc07dac71043U, 0x3c4f217fb801e23cU,
  0xbd9547dde4c7a74dU, 0x31d9e61e073f5e10U, 0x30fec652510cd2f5U, 0xeccacef44dd7a8f2U,
  0xe3c760c45503f435U, 0xcae1c805c62448f4U, 0x2a24cf4fd803d10eU, 0x6ed4d5015d7f9b8U,
  0xe6264e03efcf0a3eU, 0xd0fbfafebe3e31U, 0x3ff524baa4dc15c5U, 0xdc812c014af0d8c7U,
  0xe51348eb4b2d351eU, 0x19cde126b7c806e7U, 0x2b03e537ee02e9U, 0x1df02c3bca9bdf18U,
  0xd3d8d1321f454f0fU, 0xf0e61dc102d640dbU, 0xc6d7f8a10123d4f2U, 0xb0b1b19ecc6de0aU,
  0xb6da395dbea8d1faU, 0xb4d149e2f601c300U, 0x3eeabb012c3cefaU, 0x3fe1f20fdf9ab51cU,
  0x2bd4e84713240b0aU, 0x462d1fb41bba4a3aU, 0xbef2ceb0223536cdU, 0x1e3d29eff1e1d311U,
  0xccf0f9230aa13be3U, 0xf0331c49159ccfc2U, 0xfa1a5a08d32d02a9U, 0x40b5cb1448a1d10dU,
  0xaf000f3c3994f5ffU, 0x2011caf6dbca422dU, 0xf7e4f733c90e2db6U, 0xe92cf7e4931f15c9U,
  0xc2120106d8de2805U, 0x15ed334418be2050U, 0x2ae92feb0c1ef413U, 0x47c3f4c334a89e48U,
  0x47dc29ed1099c621U, 0xca0a2fdc420df803U, 0xe6dfc7ee212fc2b4U, 0xd80de2b80c10178dU,
  0xaafa33c3252de3dbU, 0xdf06c4f7feffea2eU, 0x1d25fa0027b6a42aU, 0x170be223fc25aaebU,
  0xf04af225160a0e40U, 0x1ee1d72aef09ecffU, 0x25310806183420cbU, 0xe2b21ce2ce19c80dU,
  0xfb10ebccefbfd5ceU, 0xd214cfd136cfd9e7U, 0x45f6e2fdee2be433U, 0xeb381ccd2ec624c9U,
  0x2beb22cece101edfU, 0x150681dffbfa269eU, 0xbeccc1cd2ed5cd07U, 0x4bfef34dec8d3f4U,
  0x50d301c83516cbU, 0x3ff5d3f525f053beU, 0xbe540df59fd0c06U, 0x2912f23fe5b519e1U,
  0x16ff91ee3d30d94eU, 0xf813c524deedf22aU, 0xe6031625464aee1fU, 0x522b5f1e1f5010dU,
  0xe91fc72dd2c71ef6U, 0xe1efdd2145422f09U, 0x45d6efcf140bfac4U, 0xf8dbe0e7530dd405U,
  0xf7c713d71547130cU, 0x523f2bddd53115e6U, 0x33d4ed21e6d002ccU, 0x2233e1e4fdcb161cU,
  0xfc020327393ce840U, 0xcd63f6264735cee5U, 0xd627054dfc2719c1U, 0xcb110521441b4815U,
  0xdc39cd57e1ddfd15U, 0xd6e5ecb3e8060b18U, 0xccd49cff44db941fU, 0x1f46bf54b3d7b054U,
  0x383240b6361d142aU, 0xf46443692b280bc2U, 0xd0aea806edfe99d0U, 0xf2fcf1488d7803e4U,
  0x50fd5347c61c3346U, 0xe720fcbe9efd691fU, 0x1e0ad7b6ebf5f11dU, 0xf267aa0f21cc4e54U,
  0xdeeacc3adcff8d24U, 0x220435ee9eefd74eU, 0xad605e3bfcf09c1U, 0x5fef1e8d5d10f34U,
  0x47d5a3eb180cb2c2U, 0x4d141bf9d6bc3bd1U, 0x32e3ed4f1f042235U, 0x9d9e3017e1fdba08U,
  0x3bedbe9c2d429fb9U, 0x9ffd18fe25e41feaU, 0xedee172205f6299aU, 0x8115d41302d240b5U,
  0x394fdd6c3515d786U, 0x4309cbca4527430aU, 0xe8efcd1acc43cf37U, 0xb23ef637ebc1c6f7U,
  0x42ecb0e70dbd29feU, 0xb5f449e7abe222ecU, 0xa216dac5f3f9f11dU, 0x392b0ce98e2617ccU,
  0xb91b05b3cb4005fbU, 0x44b221a627e3db28U, 0xc6efbe26b6ff36fbU, 0xafb5cbb010e2bce6U,
  0xe0bed234331bab18U, 0xfcdd3e01c212bacbU, 0xc01f3327c923d5f5U, 0xfea6dff142d8114bU,
  0xf62c31eafa2dcbf3U, 0xeae512ddcbe7e426U, 0xc9c544c5d1fa46f0U, 0xdb182de3045d2b50U,
  0x3854f8caf017ccf0U, 0xcac4d638e74531b7U, 0xf0d76e0852f840c6U, 0x63a8090d35d8dfe1U,
  0x53f12bae0a68ee1U, 0xea43fab71d45d54bU, 0x4e226dfbb3627eaU, 0xd8281510f8ad42f5U,
  0xede1eddf1a06a1e2U, 0xe5c2f3fb03bf080dU, 0x2ed5f023f2eaddffU, 0xf50a430c1ebc06eaU,
  0xe1f52d37e59ceb1eU, 0xf6d505fdfc120132U, 0xe982ad5f11ae8faU, 0xfe2c3ff31705d6b6U,
  0x3ee3630a1fd9c940U, 0xf91dc61ee2ac07c6U, 0x1cdfe603c747449dU, 0x1b3ba0681e21228U,
  0xac1350dcc6191024U, 0x17504099e6ed28b9U, 0xe535fcdc37e7d83aU, 0x648e8bbb1f0e819U,
  0xbf1b14ef3dfa25f6U, 0xcbc9243851ba42e6U, 0xb20acbe31d253a0cU, 0x41dc2b1f13cc1a0cU,
  0x501c0817c5fcd394U, 0x29f020474b17dec5U, 0xe5dc0520e71d915bU, 0x30deb903c69e0d54U,
  0xedd3d274e37dfe1U, 0x58bf37ef484171d2U, 0xf7e8d25f2eee9e10U, 0x5dc9683744c2e531U,
  0xb50c0ae4460bfd1aU, 0x53f315d6e1f55509U, 0x24449cfd48d39e0U, 0x5f62441e37a8dde1U,
  0xe233e6022c3454f7U, 0xec193bd2f0080c05U, 0x48714afd16c422e8U, 0xe86945381dbbbf10U,
  0x65e41cf907f25324U, 0x49dcbb2dbaccc4b9U, 0x6ff1e411e9aef926U, 0xaadb5417e84120dfU,
  0x74f4470fea1e0fbfU, 0xb1c8054dbdea5c01U, 0xe766a4c9c991e078U, 0xee2f32e9da0ba023U,
  0x1addddb1a6c7f257U, 0xf7e3273d1ffee421U, 0xb626ca8fd41cbfb9U, 0x4e7ffb08d549c6baU,
  0xf283e2ca7c88c29U, 0xc9c0ce0e2de63c11U, 0xe2d1ca0a0d2d09a9U, 0xb6e4bd4991fd480eU,
  0x1b9919d443560fe9U, 0x18e78afd43cddeb7U, 0x61f1b4b4edd8e017U, 0xc2f31ccdb313ce35U,
  0x35eaff1436fe1ef9U, 0x111702bd38bdc8efU, 0xeb57d42a16391fc1U, 0x1a2b38f8d40923d3U,
  0xe30eb21514c6f0abU, 0xfbe1ed55f4822cdU, 0x922eec205fa5d11U, 0x3b354fef1ed7023cU,
  0x3a21100dc32ddb3bU, 0x13e1fe5c4133c42dU, 0x25e0ac20e804e1b9U, 0x530cf0d1c02e32aU,
  0x49e247d9f5392ec2U, 0x2825c5cf18dedff5U, 0x1df9a31ff736e5faU, 0x3f68bffc51d0cdc6U,
  0x37404aeea90f0b60U, 0x163bba03d92200d4U, 0x511a50c801d1ea49U, 0x462bb9170b81cb1eU,
  0xfc1666cd3129a61dU, 0x4ec99ce6303b23dbU, 0x1cfafe28cc06414fU, 0xf2ec32aef0c52422U,
  0x1a12dcffb30836efU, 0xeffd96bc9a489bceU, 0xedb8badaeb25454dU, 0x24eeb92ffa343006U,
  0xa1f36313d615c25aU, 0xd831b7c6e1502ddfU, 0xd7de0da636b963e1U, 0xa730d8cfedf5213dU,
  0xbbcef5bef9161115U, 0x1dcab738ffe7b705U, 0xebd0fe7ba35ef45U, 0x6d044ebd4bb3670U,
  0x136812c5dd244965U, 0xd1c60d065dd63448U, 0xed1c550bef4bd319U, 0x1bd902c3e4e7104eU,
  0x1418fcb149ae1552U, 0xbbe90c3eafcd24ecU, 0x4631fbf50ecdecfdU, 0x291028fa48d29706U,
  0xf709fb5d3f8e352eU, 0xb7ec19fe66021cbaU, 0xb465609fd8f2accU, 0x4fbe42d14a4b1e55U,
  0x1bc6c1c916fffdb9U, 0xc9cee74c461ee73dU, 0x2e56509abc1dede4U, 0xdbfee800cd2de7d1U,
  0xfdd966131a002cf7U, 0x9d81ffe6b7e6ca5fU, 0xeaccc1f12daa360U, 0x60ccb70d275d9d2bU,
  0x12c21a23da3dc718U, 0x2dd33fd5ee5d574fU, 0x22c1f8f1d4b0b9b8U, 0xc5a2bd02ccb300aaU,
  0x19d3c83ccadc074dU, 0x99456dcec315520U, 0x2716e3b8b052de0dU, 0xcefac91f1941bd16U,
  0x5b3ceb23deb99c0bU, 0xbfdf412c5625332U, 0xa3bbeb942bebce04U, 0x4edd82bc32a24a1U,
  0x44f2bff448a62d39U, 0x52ca23effbfce0caU, 0xb1f246e7046aa1c1U, 0xb4d403424b80439U,
  0xcec7181f5027c63aU, 0x1feeb4e7ef0ab0d7U, 0xfedaca38c945b39aU, 0x1d01cac7f6f4c2fdU,
  0xc0c639021ec8b9e5U, 0xce35cf0702c62ef0U, 0xe82a10e22edf421cU, 0x15d502e60013ed06U,
  0x23b7033149c30837U, 0xdf4dab4816019ddbU, 0x29371a11f2daae36U, 0x3dd036c92591e239U,
  0xc0d6b3e9e711fb33U, 0xc8e5e1f2d4e5183fU, 0x1aee0eed1dcdeed3U, 0x6a610c0e527c0f7U,
  0x35171ccdd3f73bd7U, 0xf1fb14342cecdd43U, 0x3cd04d15e73e1bbaU, 0xfe8b71d13f23eb4U,
  0x4aed3117165822f0U, 0x813bd52ee00fbcbfU, 0x5936e3de30d2f3b4U, 0xb3ade22e42d8f4d7U,
  0xacfcdde79f0dfd2aU, 0xc8f60301fcbcfb0eU, 0xb7e9393727db44e2U, 0xb381fe4d6b21cabU,
  0xfdafbd4b3cec0e6U, 0xa8bd2b62cf4b3237U, 0xde34423a11be40c0U, 0x1ac000bcf5e01d53U,
  0x47adb404e4e2d5e2U, 0xa6c52209f8a667d5U, 0x4ff8e50e54c8fb31U, 0x49c7550d3e0cc3f2U,
  0xb2ddb90215fe3d15U, 0x183035f22e25f925U, 0xefab2bfc4b4c18fdU, 0xf52ceba43f2a130aU,
  0x1ccffd0edee5d826U, 0xfd2adadf0671ffb9U, 0xf7fa14393216c540U, 0x28a3b6e516ad32c3U,
  0xa106f1420d1ac815U, 0x3f418034433edd1U, 0x5cf34f2a2d2c1405U, 0xff801e80ca9aed8U,
  0x25fe3ed7b5132af6U, 0xf4d514f6c9f6b516U, 0xc7bf1d3c210e12adU, 0x12beecfb081b17fbU,
  0xcdeffed2dcb52aefU, 0xfa481f0505cb0620U, 0xe0045105ec171730U, 0xcff80d0f322b5902U,
  0x4f08dd56ddb020cdU, 0x37edec39dfd8b9U, 0xdaefd1d71bd90116U, 0xa2b7f8aef2c6cbfcU,
  0xe1de24b3c9101b1dU, 0xff271a34d3bcfbd5U, 0x11dfd7c82df6fee4U, 0x2d1140df900d16d4U,
  0xe23c22f4b9baa0f6U, 0x1a2926e81fe1d239U, 0xcb42b1acf1de1f2dU, 0x8102b81ead0fd3f6U,
  0xecd74cb7b82ab024U, 0xbae7dbdfc73a1917U, 0xfceac024b5051abfU, 0x91858a1c041eadeU,
  0x34e2e5c5162ca31cU, 0xcb0e3f99d099e028U, 0xc20ad212231f9645U, 0xf0d286fac0393ffbU,
  0x3b839e00c281df6U, 0x33b9e404da580fc3U, 0xf2adb7ba211239feU, 0x7e14c42ebcc748ccU,
  0x1e60670946f560eeU, 0x5a601d1cdae1510dU, 0x42baad09ae0f0d2dU, 0xd1052e57d4d6b6ffU,
  0xc460eb7ca3849b4U, 0x1eb11c891510a207U, 0x651195c405e8a80bU, 0xa0c81cdeeac6c6f9U,
  0xa7f7b3f8d974255bU, 0xc1e8f93bd52628a2U, 0xe500f0cbdce6321dU, 0x192881660c0401dfU,
  0x1ddceddab7c4c3e8U, 0xa1e50452ba05c440U, 0xf5fbd425402698daU, 0x7264d55ddac32cf3U,
  0xbabf2b4d2927441eU, 0x2a469a2d004754fU, 0x5ae7218ed3af368eU, 0xd2d47bd5393021daU,
  0x3d4104ab8a503ed6U, 0xc42df1534062edfeU, 0x1cd604042cd812e3U, 0x28581cb3fb3b3d6cU,
  0xc2df9d0c0b222257U, 0x2beaa6c04bdcf319U, 0x4a36afdf1797e912U, 0x80c2bf108c47a22U,
  0x1bd204c00203f0e7U, 0x95ca15f05800d933U, 0x313066e02c46721cU, 0x1fceefaf9221f1d9U,
  0xf7482453d524c834U, 0x3f4cc7fdb0febab8U, 0x512e4edaf1c15630U, 0x3718d01ef19ff5f4U,
  0x4e3b3e314cbd0cc1U, 0x1b384399a14cfcc6U, 0xc4164cdc0edb5ebdU, 0xbfb7654cc91cd9c8U,
  0xaccf643fce2e74fU, 0x900d1ea3b5ed99feU, 0x81972f5a586e2a34U, 0xe2c40da29808268eU,
  0x3dcd43f5cf6cd5f5U, 0xad280e539d67f621U, 0xc30c41f631d7f6e2U, 0xd153439fc8d20635U,
  0xefdddccd03e9d1faU, 0xbb21b80fa3ef3aeeU, 0x5020fb3745c033cfU, 0x6c44ab9015375c8U,
  0x590510be2a220b64U, 0xf50cf8e9fd3ea3c0U, 0x1ab112abf7207928U, 0x355156dda86d76f6U,
  0x1ddece470418ce18U, 0xdee9e82fa0f9661eU, 0xbeb5d082daa5bebeU, 0xf216e210174be9b9U,
  0x3453cae3dfe2c62fU, 0x4505eac208e0a5c8U, 0xbb0be8a117e7ff31U, 0xb44c45ebbf16d0efU,
  0x36b11115291cb6f1U, 0x3e03dfdad507640fU, 0x1f3c4f3930e94a4aU, 0x35a4082e96b413dbU,
  0xc3fb14914becdb1cU, 0x8dfc0ae2b52545eeU, 0x6c1fda280bab50c3U, 0x3d88c7113f276e06U,
  0x1ee52919db4cff14U, 0x8499531b321e13cbU, 0xbdd6bc05fdf029efU, 0x2def748ebcb7650bU,
  0x306c90a462729dfU, 0xaf2438cfb727f742U, 0xf00f4a1df77a5719U, 0x26100bd23e06a158U,
  0x41f24035502f5847U, 0x324e2360fcff02b5U, 0x43291ad5fed21f1fU, 0xec143db52f996b5U,
  0xc7efb0c13f0867c0U, 0xa6f4693e2039d06dU, 0xc041c4dcf66ffb2bU, 0x412fd718304293b5U,
  0xf233580e994114f7U, 0x18a71430efaf19f5U, 0x2a6745f333376605U, 0x1153f81afafd81e2U,
  0x4cf30e5ad602eaacU, 0x9d22c706562bbdb9U, 0xdcb70da1e73b08f2U, 0xc9fd12f03e540b4dU,
  0xbbf41385c7ec35e7U, 0x9205029339c7f025U, 0x3fd1d3990cefd231U, 0x64f2ec5f4ecfa538U,
  0x13e74b4f00392206U, 0x2dddfd42d84416fbU, 0xf7816610e21c43f6U, 0xe704fe23f4cffeecU,
  0xca6f3d4f11f140dbU, 0xb6d76ad51e26b7dcU, 0x198ada48249f30f8U, 0xdbfe3302e7c3b208U,
  0xb7c9f33652b918d3U, 0x4bdf044a39ffceb4U, 0xcfe152299730f809U, 0x40db01d1192bb528U,
  0x280730f720b1fc4aU, 0xea4d0fb34113e1e9U, 0xec0f24bde13987aeU, 0x1d1930effdf53beaU,
  0xbb45c8c5e8ddbbdbU, 0x1703d6b5170b41c8U, 0xc9cd22154e41c4d4U, 0xaf1feaec425004bbU,
  0xbafc11ac113ac21eU, 0x1adb2c4809c6152cU, 0x20ef18dfe81bccf7U, 0xe5ddf93bc2ec22a3U,
  0xa4a0f74a1db644eeU, 0x1b4ee7d315cedf02U, 0x13e8d4e7f0f4e122U, 0x37e2fbc34608da16U,
  0x500558f7ddf322afU, 0x163c45ff42d61044U, 0xcab25c264dbae72eU, 0x15e0bcc822bbb21aU,
  0xcef220f528b8ae49U, 0x3e03b121f5390eb4U, 0x6a40bcf3e536ab29U, 0xddd818b848b717d6U,
  0x55005328b0f4f336U, 0xf65107fbc9dcbe49U, 0xed0bf2f602df321dU, 0xfc2ede4bfbe30fd2U,
  0xe830ef0bb3f6f81dU, 0x2b33f4d941c70cf1U, 0xf4daf8d0303a02ffU, 0xe937ec2634e8b9b7U,
  0x1721f601ff4034dbU, 0xe2f720da240f4b11U, 0x1e36c327110b37U, 0xc44c12617a9f6bfU,
  0xced4e13726e91201U, 0xedfa151ee73081f1U, 0x3cceb42636eaba0cU, 0xa21a1bc7dd230c31U,
  0xe050fdbea9d9da1dU, 0xde1b43aad609c105U, 0xe94000f22b2dfed4U, 0x2c2cc824e9b14317U,
  0x29f005fbfef6f2f7U, 0x3bcfd0500de9001aU, 0xcfef1c1ff3dcf72eU, 0xb04034d1c2e2e54U,
  0xf6d1ef170be4081cU, 0x28d73b08a9f3d04bU, 0xba4efdeebbf2fbb6U, 0xde28f21200200abdU,
  0xf51e18c61eba33e5U, 0x100df2e0ce3a2029U, 0xd5c81cdbee23e735U, 0xc236f0e6ad331922U,
  0xc173a1b27e81ef0U, 0x7d73bd818161f1fU, 0x27d0062cc5eae2d6U, 0xcb17ee2ec5cce3eaU,
  0xbe23ecc2be1081b3U, 0xd8632f26e3080f54U, 0xd1e99015baec9cadU, 0x9607cd0d341b29e2U,
  0xf2f05b2bb2022af1U, 0x58f2f7be3beafb59U, 0x3dafcf360ed6c71aU, 0xef080de99d5942e9U,
  0xfa07bd2832b3c429U, 0x127b339e011f4ed4U, 0xcecfdf26d7da1d00U, 0x5c5eae333dbd0ceU,
  0xbe2ab6aefa4b0de8U, 0x73e0a8bfc132300bU, 0x2df7bc2932ccc5c9U, 0x10f3f4f52f30f4f1U,
  0x1531c4c94db1d81fU, 0x3ae3d9ad3d09fe13U, 0x5f5a80929d59dabU, 0xbc5acab1d72d3eddU,
  0xe7f4de590a08b245U, 0xded520bad71d25edU, 0xf104c20ad2a51256U, 0x2a4c5d0209df641dU,
  0xead6f029ebed3a0cU, 0x63dc9e461ee71a48U, 0x35f6bb49051cd535U, 0xd5640a0748d50e29U,
  0xf2d8ec3dc3ded6d1U, 0x780cb8eb183857b7U, 0x46e8e037b29eff03U, 0x5742e918cbf7f6d7U,
  0xa6e349602a364ed0U, 0xd31df0daf9b9f724U, 0xe202bfa82eb6dff6U, 0x2cb80feac3dc5305U,
  0xcfe9f1405b3e159fU, 0x1910991aee7fb62fU, 0xf7c7d00ff501ce75U, 0x171c7e0fb7b96352U,
  0xddee15cb0cb329a2U, 0x3309a93cbc27a918U, 0x15c9f15fe2e3d019U, 0xb3f91e1c63ec13eaU,
  0x563b963da0c2b34U, 0xfd873fccd853adbbU, 0x42dd5104e1af1301U, 0xdbfba218ce3f35a5U,
  0x3dce9de11082c19U, 0x46d1073d2f3feae5U, 0xc61847cefe070257U, 0x4935fee33f50e0c7U,
  0x2afd24349cf12a0cU, 0xf23e10a83946ecb7U, 0x504d41e6a63b48deU, 0x2913af025703c741U,
  0x1e3f321dd5422a52U, 0xe64017ccf7d7accbU, 0x2b4aa332405fccc7U, 0xcf3019cbcd393b22U,
  0x70d43427cd0b05c4U, 0xe6234adeebe6baaaU, 0xbb32f9f8ec1dbef7U, 0xf128e4e9cdd9dfbdU,
  0xcdf9dd4f90aedc1eU, 0x37da53dcbdefc9fbU, 0xe92902b28633c235U, 0x3324fe21efc01605U,
  0xe93dda1ef1154208U, 0x6742c9b7f5f8c8c9U, 0xdb312612a12dfb07U, 0xcd2fc250cb04a9a5U,
  0x829193b38b5e01aU, 0xdee619213c3b7509U, 0xfef1eacdae7ef08U, 0x50b343362258193eU,
  0x31d114fb3837f94dU, 0x55dc3112bd99d1f0U, 0xbd2da0c5fb0f8310U, 0x1ccb28e98157d71bU,
  0xb52f8db8dd471cc7U, 0x22232f2aa3aadd34U, 0xb5c81fa62ff8a3f2U, 0xe5d5d2d2d12701ceU,
  0xa5200af05a620049U, 0x3bcf22fb12d63f13U, 0xb12ed144050f323aU, 0xb235f13417490826U,
  0xad40d4d6ee0a36ffU, 0xf02016dfb005bd57U, 0x53230f395cfe1ea0U, 0xf741a7bc1fdb0fc3U,
  0xed3122cc3d14e38U, 0xecf65ca7ffd31cb5U, 0xab2538c525f9c9efU, 0xe22fd58eb3691aa2U,
  0xd7e6bb1b5727e1daU, 0xbfc8241604f93b4dU, 0xf50a573f333e3aeaU, 0x502c563cf6e2e14bU,
  0x2726a73d2145c8ecU, 0xeeb447d0d22a2728U, 0xacb6b2b04b1fbba8U, 0xf2b2bd2e9b14b48U,
  0xc435ad3f08194a39U, 0x3cc71929180deac6U, 0xe4482b0d0dc7d4c4U, 0x230a8ed15c954ccU,
  0xcffa2ef2dd19f2ffU, 0xbe10102bccd8261eU, 0xe7ddd52507d0c3f3U, 0x43fe1c040d30fd0fU,
  0x21f424ed0324f30eU, 0xb82914dfe9bbd5ebU, 0xfec2df08d938e2e1U, 0xbe094b10330d4bceU,
  0x2adf0c53f71af60aU, 0xdbaade271ee23113U, 0x817f336db2b1dffU, 0x2d1340e5eb1039f6U,
  0x19fc3306aadcdd08U, 0xfb04cbf3fe1dceccU, 0x3c2f08cbdae802ceU, 0x9fd08e110d445fdU,
  0x27acd6190ecbaf0cU, 0x18c5f9e20317a8e2U, 0xdabce2ae9b01c36U, 0x87e5abed86eeccffU,
  0xfe172f3ff0e2c811U, 0x9c0ea6f4ffdb3726U, 0xa50f3de4fb113108U, 0x902ac6b2a1ff2dd0U,
  0x37c63017ee00e918U, 0xedc6b810ec153d0aU, 0x5e21f903d500d50aU, 0x13fa2de1de4637e4U,
  0xa21c0d2f180f1ad8U, 0x16001555ca390a04U, 0x2d00f3de4c2522e0U, 0xe12d20b481d7fc06U,
  0x31d4d9d625fd0ac2U, 0xd441b12a162d0a0dU, 0x33d1e9f7ddec29d9U, 0x9cf8c12da21fcac4U,
  0xa8f4c00758eedaefU, 0xe923fe20b066c4f5U, 0x5f59dca52d98d94eU, 0x220b23d66c8b002U,
  0xf902ebd10f2f0dbcU, 0xde9beafeadf48b8U, 0x6eae2f01f1e7e310U, 0xe6eb11dedfe23939U,
  0xe6c4e91446e110b7U, 0x64f337bcf22b1df6U, 0x1f37f809e627bfdeU, 0x415b40bf331eeaeU,
  0x3c2610e9464d08feU, 0x5b6e9e4bc4fb8cbU, 0xd603d24ef381232dU, 0xe6ab3b2673c5a11dU,
  0xe095eb42dd2dcaedU, 0xf857de4b00d8c032U, 0x51c00befd3e94a12U, 0xdc06cd3c78dce732U,
  0xb9be1b47fee1f8f6U, 0x63cb3bd2e3d1f1a4U, 0x33e71b07153bc74dU, 0xe1d73c0c5d042ec6U,
  0x37f0f415f6fdc42aU, 0xfacb5eb7e6263e41U, 0x8e04be13fbbeed31U, 0xf4f133023ddee6f3U,
  0x10cb02dc115200eU, 0xbaec612f11084235U, 0xb6d34bfe35ea2a06U, 0x8ccb010fc09ee326U,
  0x2e092511b738f732U, 0xe1ecfcc5d8c5f0faU, 0xb2041804d7d0502eU, 0xe2d940fdccb72c0aU,
  0x3905ef322d59452cU, 0x1bbc02303edcd0ceU, 0xb4d4302dbed6c51aU, 0xb9e9a647f1e620c9U,
  0xa761153722c1cfb0U, 0xfe3323d6e818b32aU, 0xb24d3c1ab9e7032fU, 0x46e91643312ec4cfU,
  0xb02d7b6a72fcfU, 0x44202ad4def5c265U, 0x13c3d002c934fab0U, 0x3737c5f305c41ebaU,
  0xe2360cc0ce40ecc6U, 0xc3154eedc3ab4b3U, 0x42364a02214e4afaU, 0xbaf3aa2842b12b19U,
  0xe03118b3cb44bab8U, 0x93f0ecc4bc40bc6U, 0x25dfcccd37f9bad3U, 0xd2b4d71dc5cb4bf2U,
  0x72aa9ceefc1ce49U, 0xb11361482a10e648U, 0xe8c60f3bbf3f1224U, 0x130eda205245cbb2U,
  0xd6ef0fbd031aefffU, 0x3c00f1d6d7e03a02U, 0xbc81bed4fb01c303U, 0x1b1de0ce7ff0ffc7U,
  0x75f749e4b14dd8e6U, 0x2ff825f9205405a8U, 0x42bb31d3dc0716ddU, 0xd7d1371b392ad324U,
  0xe0ee44fe260941feU, 0x5420051b2c123029U, 0x1fe94e179c3cf74eU, 0x17aef1ea3b301e4eU,
  0xae394bf0fc46032cU, 0x38efcdf204fe0b25U, 0xf9dce4c0f01a151bU, 0xd23422333ef50036U,
  0x112202fbede95935U, 0x41eeebe33ae7eae4U, 0xd18aaf2d0090131U, 0xe1efefecf11e2932U,
  0x1adf27e417d3e3e6U, 0xf23745cd14e230d6U, 0xe1ea1dd11edccf20U, 0x472d340e18f23af9U,
  0xfd10e709b106ec15U, 0x440f33eb08d6d407U, 0xc612bdbadd3645ecU, 0x2bf93a0f1acfe5f9U,
  0xe14e2bfc9d1c4U, 0x2fdc611b5f0b900U, 0xb10f10cd1dc1c728U, 0xd43c17eadc2c5705U,
  0xfd350c10cee4522fU, 0xfce52db7c747f001U, 0x31e5d4e9d9c6cc2bU, 0x38300fe9000202e6U,
  0xca29ce43b245c9d6U, 0xda21ac2efcedd216U, 0xcc051f181c29e7ebU, 0xe350d21e1027d3f3U,
  0xf9d00f2409fd01U, 0x22df28ac1ae6dae7U, 0xa9e132ecf9da43f9U, 0xdd0d10138115e015U,
  0x7fdc9d42a1a2cbfU, 0x2321f6b7fd1aa5f5U, 0x18bffdf0e2f919f5U, 0xc805f520fa064fdeU,
  0x45f30c041ecfd04eU, 0xdb420f128b8e1dfU, 0x421cf506b1d5f90eU, 0xb972eefac53a445eU,
  0xd01036440ef5c518U, 0xea0dd6174bead0ffU, 0xe285618012cedfcU, 0xc2480e23c8514900U,
  0xdf1ae013333ac3e5U, 0x291b19fd2f25f206U, 0x4013ef58f1225851U, 0x4fdd1c22c515d7d8U,
  0x25ee63bca6d03512U, 0xd2a6cf94dc1d2afbU, 0xfe1af9b5d623b359U, 0x27d523fef60cd443U,
  0x224d3aa3be1f11b3U, 0x18980feec6304dddU, 0xc542edff36ef303cU, 0x50bd5d8ea5cd4f0U,
  0x4c93ed7d9f3f24fU, 0xc92b01ead935c120U, 0xe4436c921dbeb26U, 0xe0063e6cdfc41bd6U,
  0x3127c4de81e9ba2dU, 0x3ce0de5dda0bdee1U, 0xe2214b0a16253cb2U, 0xc22f4850b7531904U,
  0x1df4cb1a1ec2ccaU, 0x1ae2e8cb13e8ea14U, 0x1301372a11ee1e3cU, 0xf7ec132afe16fd36U,
  0x433623e5bf0702c9U, 0xde00c25be0e0bf53U, 0x35d7aabb1c1d2becU, 0x55471af7dde1471aU,
  0xbd23b3540118eed1U, 0x3d465b3417cf0adeU, 0x3fe3f7df10b2caabU, 0x3693cebfa6e5f5d0U,
  0x549ae86ed4aec7e0U, 0xc7ce4a1f3f213bd3U, 0x18c100f763220f3cU, 0x59c412b52502bcd3U,
  0x3237695829253414U, 0x8117b2466e3afab6U, 0x2bcc1956d8e359e1U, 0x3218bcc7b4eccd21U,
  0x222ee7f8ff53c902U, 0x14dc27f6d6df3d51U, 0x2e39293a1127d70bU, 0x13cacde8b10dbefcU,
  0xeffbe4c51d174d06U, 0xb0e1f83b348c3915U, 0xbed6bbc0cba752fdU, 0x28f43acc12453104U,
  0x24e32e3b3bf1e3aU, 0x222fd20d4e3f6bdU, 0xb82f57fd9ff9fa2eU, 0xac1108d6ac061bc6U,
  0xf20b654f3cf4cd17U, 0xc70de65301fb2c43U, 0xb024efe6a7e1e42cU, 0xfea12ba7c31c210eU,
  0x1965e40821dacd07U, 0xa41fd13e33101557U, 0xf1902452b26db07U, 0x12edf2aeace5df10U,
  0xe2ec34f1d25e9a5U, 0xdfe04b52ed0f92bU, 0x3bf521e736e0d3d5U, 0xe4e3d6b5b7d610d9U,
  0xca481da3ef447fe1U, 0xd1c6ef10de0750f5U, 0x4d16f7fc4235f2cdU, 0xa00ebe13d5d9b5f0U,
  0x16d1f3ed3dea51acU, 0x8cd01df14a014338U, 0x2bf3e7e4b4b23cabU, 0xa0d0570f07b634d3U,
  0xda03342f1934d245U, 0xcedbe0693d34ecf5U, 0xfc392f2736fa3521U, 0x11161806d5d44b10U,
  0xf52bcfb2d6f93c0bU, 0x854141d934052a4dU, 0xcf28d352f6b0dc3bU, 0xcb08be0d1403352dU,
  0x21f3f3aca60624f9U, 0xcf5ce37aecc0a9dU, 0xa75da6c0db55462fU, 0xedff3d32b6c013faU,
  0x2630ffee28e22bdeU, 0x92102c2f3e02d7f6U, 0xaffcd2bb112e3904U, 0xb52e09a29d213dfcU,
  0xeee82a20d22b9c35U, 0x4b3e66313717212dU, 0xc20000aceb002d41U, 0x12039c9bbe2fdffU,
  0xd51b4bfd3344a6dbU, 0x41f247e557cbdbc2U, 0x1ae9eafac7503853U, 0x4f4f38ab2ce63635U,
  0xf1194902c4360112U, 0xb73e0de401dc31a7U, 0x1e275006d2f828f7U, 0x2ac710a7114f173cU,
  0xf62928c62c2414e0U, 0x2f1debae0cddddeU, 0xdadbea1c162ecad9U, 0xfbdb08ef81fe21f5U,
  0x1b1aecca22d22bbeU, 0xb7c10c11e8cb06e4U, 0xe6450be02f1ef6ffU, 0x908ccdac4283be2U,
  0xd7f9e8eedfe3e2d0U, 0x11fcb3a21230019U, 0xcb02f01212e222bdU, 0x929e8d0ca000218U,
  0xc805210ac4eefd23U, 0xc8f92e123ffd2307U, 0x8e9e908bb223526U, 0x1a513ae8dcef2be2U,
  0x44f52d2dd92a4b1fU, 0x221b6112dbe8d9d6U, 0xfa4a45d8cdd54412U, 0xeeedd61ff9f42726U,
  0xcfc6bd41c2edcd4bU, 0x172ae61be5cebe28U, 0x455334b2d8ead419U, 0x11d4febacbd8311aU,
  0xd732ba00e8cad306U, 0x111a4a02e0d120c6U, 0x36f14216f9f2d8f2U, 0x32e8f14003d6e443U,
  0xdd2a172007dfd611U, 0xd6daebf3ff381bd1U, 0x2e3217ee13f40017U, 0xe718e0f943000834U,
  0xd3032154549fa3fU, 0x7100bb831ff10dbU, 0x1ef50232d3c6c1d9U, 0x29b3fa383714c3d6U,
  0x4828b9e5f2ea24e4U, 0xfd3b992a1554c7efU, 0xb31aee2426a23a02U, 0xffab364f3cb203c0U,
  0x36c8b8181c23c8c9U, 0x3511ef1d1f36caefU, 0x2e3434caec18c0e9U, 0x132907ec452d0acbU,
  0xbb2fec3ee429fbe3U, 0x731ad3b0d26161cU, 0x2f16f62f27fefee5U, 0xd5e60e071149d54bU,
  0xd60f3c0df59dddf3U, 0x572dffd2211817beU, 0x18c3f640f40c35efU, 0x3c3917464bf740f2U,
  0xddd42b0a0e81eae3U, 0x1613fc16e63b06aaU, 0xdaac1506e845c1b5U, 0xf31609e0283d24ddU,
  0xc5d8d30dfdec0c2fU, 0xf904ec2cb20b68c2U, 0xbf43210c9bfb1d1U, 0xf3aa14d5002aeaebU,
  0xcc07c040083233eaU, 0xeab8b23e2a6e27c4U, 0x19b0d8fc4ec75f04U, 0x49a40152fbb0c5a2U,
  0x290cc510d0b1c509U, 0x1b04c1e2ebda0e50U, 0x1edb6403fbed0a1aU, 0x13bec7370bdcdcabU,
  0xf9c7d313a1232d07U, 0xff35b3d5a8452a08U, 0xd806c4e4eab9e641U, 0x171a2737cdc45cc2U,
  0x4eb9fd561d94dc02U, 0xe64bcd21674641daU, 0xa5c408bb1e02dd29U, 0x310f47a9524ab106U,
  0xd92122fa55150cd0U, 0xc2f21bf05007f522U, 0xea4301c3fe4a3a3aU, 0x78c6f206cfc340deU,
  0x34cf3b36d90293bdU, 0xb13b134895d7b904U, 0x2bee2ad7dc47b9e0U, 0xd529e4184b1c3dfaU,
  0x399e5bfdc9f93514U, 0xe94fdbd9062b921bU, 0x1490b92993f52bc7U, 0x13e947f2d1f7ae44U,
  0xdfa439e2c350e400U, 0xd539b6245ff4b0d7U, 0xf48228fbfe2ce8d3U, 0x50c0753336995916U,
  0x73c2d5dace38b4b9U, 0xb953075e9f1c29b8U, 0xe7c5691af10aed48U, 0xde3901ffbace4dcfU,
  0xafd76fc7ea49cab9U, 0xaf0f871ee265b2b7U, 0xf18524ebb3eb99f6U, 0x4bbfa62be131f3a9U,
  0x971b44204f2e591cU, 0x292c27f3fe1ac4beU, 0xac81c50d0ba90c1eU, 0xf3d826cbf42433ddU,
  0x2c2a4d27c64ded53U, 0xd841faf61c6ffc41U, 0xbd140254e8f4daecU, 0x3b529dec1a8d30fU,
  0xcd428fe2822ebb4U, 0xe126311814cde7e1U, 0x736eef21bb9fb07U, 0xcae1cf025bf45a72U,
  0xced303fae2dec62fU, 0xe6c2e90b0337e405U, 0x21051ee939b42cd2U, 0xf10442f81636d95dU,
  0xc2b43312583346b1U, 0xf71ab9fdd6f3dc33U, 0x914350442033027U, 0xeae71214c0ddd516U,
  0x2dfde20fba58c4c5U, 0x2fec4049da0819d6U, 0xcb161fef35243a1aU, 0x1bbf580feb37d005U,
  0x3e01432efbfc3ce0U, 0x26cd16a9e318d5f4U, 0xf2332147cdd91130U, 0xdcb435b024c9cd01U,
  0xe0adcf0ab4e314f1U, 0xf6e2e4ff0e36c337U, 0xbc00ce304ee332c8U, 0x37e1dbc9d64bf6efU,
  0x4fcb106ac043401U, 0x27bac11ec6e4fa27U, 0x1fc6be161fcdeaccU, 0xfdc71cb7e3ef0e02U,
  0xabb2c9f81d493cedU, 0x3f22bb1e30c02f24U, 0x13b4d4c217abbdc9U, 0xcfc7290cfcfe4404U,
  0xdba19dd5c12e1d30U, 0x1dec081eb42c5a9U, 0x18cd11b6ea1d3f1dU, 0xe910c4d61e470621U,
  0x8d21b1cf551b020U, 0xc0f6f2ab340f2e1eU, 0x371450c8d4e889beU, 0x31c2526ad445a42fU,
  0x6edbbfed35b22f4dU, 0x6d4ed1eca025b6bcU, 0x13dc60fee2f0f6acU, 0xa5b9076522dc184eU,
  0xf9072725e314c5c3U, 0x65cac8388b3219c9U, 0x17f32b30f585ec0dU, 0x1894d10f1d5b0026U,
  0x1e4f9b49a3364bd9U, 0xde0d0015ece6ef14U, 0x4b53b940f6f3d7f5U, 0xc5e1db68e046c6baU,
  0x60083605422608e3U, 0x712c130542ea14d9U, 0xe32edb9fe84b9da6U, 0x5f35c50969505435U,
  0x7d40c6db47d8de1cU, 0x149837b5add12edbU, 0xcc4849fa09342162U, 0x148c016d4cd62a52U,
  0x4df2c169fb3c063bU, 0xc329a03073f8df1U, 0xac2cafb3b8151f55U, 0xac242633485a24cfU,
  0x1738d2addded1843U, 0x5a54bb05e2b8410dU, 0xcb44ad26ab3ffd35U, 0x317c3c1a6d47fecaU,
  0xe0d0dfb216fb02c2U, 0x58c738fc4604ca52U, 0x1ecd981d8b0ef6aU, 0x2e2196d9c9e0dacaU,
  0xb6a8050b3153c79cU, 0xd2d2502d01f6eceeU, 0xad2bc0143ea51f18U, 0xc56953ede855cb31U,
  0xcda34d5cbac0a8c6U, 0x39e4f512953cdcc8U, 0xc5a83010b9443704U, 0xc903df05e5084ef6U,
  0x940f73b1d992e9fU, 0x47b318c9c9cc85e8U, 0x1629fba7a4a40856U, 0x28515c69d33c4bafU,
  0x1ca7c6a81847ce31U, 0xe21bd6bf0c20b14dU, 0x29a72da92302daeeU, 0x11a00533e942bd81U,
  0xcb05431c1606ec32U, 0x2aee3d0d20b2bbc3U, 0x53f43d4486fdf61fU, 0xf92b06d84117ff18U,
  0x373dbe55f535a444U, 0xc9d5ee703249292bU, 0xf830eff8620a13baU, 0x30b6a7c9073be3ffU,
  0xe31557172e393aedU, 0x2302b90d2da158d9U, 0xcdf0e6f954e949b4U, 0xb8b6fbcde1dba2c8U,
  0xf8b1d6d848491e4dU, 0x254ef1245d322e97U, 0x3103667561081039U, 0xc11b3602f39d04f8U,
  0x35342ff458b3fadfU, 0x32b1aa0b57d25d3aU, 0x3d41581895653bdcU, 0xca40c2a9f7e3ad2fU,
  0x45bf03e4fe61f30U, 0x7e9de856c4c33029U, 0x1038c50648fccc5aU, 0xc64c11093ebfcd1fU,
  0x22d5fccd13e4f35aU, 0x480afe6521a3f0b1U, 0x16544af43607cee0U, 0xc229d2ef5b30f2e4U,
  0xdc312e0027bf0ffdU, 0x7c0fec3cf5ef7e94U, 0x3bf89e1a28ddf335U, 0x2751da34c757c209U,
  0x12fe0e0baf00702U, 0xa1e05eca15cd1ff4U, 0x5d2b71aecedf421U, 0x22c1822e03624d06U,
  0xaf3f0aa75e021a35U, 0xace6f881b24025d4U, 0x2252d551b19d2eecU, 0x225398ddd5d60645U,
  0xca2626fac62be942U, 0xba3e0abb031ed5f7U, 0x2b0bde272118e9f6U, 0x26c2baf31d334af4U,
  0x82c004af0a48ad2aU, 0x3451d608c0f7d84eU, 0xd21dad3326051c12U, 0x1015b0b2a6b60543U,
  0x2a20f9b5c819ede6U, 0x15b12d3209c5d1f0U, 0xd6d8b736de00f7f4U, 0x19bed1c3c414a657U,
  0x97d34d00113992ddU, 0xc90720cc3845f2bdU, 0xfadb3de32f06dac5U, 0xbed504d9b6270010U,
  0x184713d32a2e24f1U, 0x2fe63703e1c324daU, 0x17dedbd022bce924U, 0xbd81f73efbb70617U,
  0x3fe2fa073106d50dU, 0x5fe12f34cb420d3eU, 0x34d44017f71ecbbaU, 0xf9e30354200a2bc9U,
  0x7ccc7c004e8ade8U, 0x230b29be1abdc644U, 0xbf35b413359fe2c0U, 0xe9c3fb23d1065623U,
  0x4fcd9d3bc8f835fcU, 0x50fcbe2e3332cf2dU, 0xe1e92019f4f5e234U, 0x291cf60df1c2022cU,
  0x38e2d917442b41b0U, 0xf414b82ee8d2cebeU, 0xc62ee716fb53ea4eU, 0x3af71b5b1a38fdcfU,
  0x4625f2040548c228U, 0x451fff494b0ee1efU, 0xbe072c04092bf62aU, 0xbbb5dedb31d33aeeU,
  0x917a9da0516e12aU, 0x6a27b0ce11b912f4U, 0xcfc04cd7ddf4c7e5U, 0x2c44b8f42ffce8c0U,
  0x4135e7c2df4cd1ffU, 0x45fac20b24ad3b20U, 0x24f9f1dfda19265eU, 0xb54265b3488f2c0U,
  0xe212d0132e56e14fU, 0xe116eef8e52ae746U, 0x29c1ca0f0af8c34dU, 0x3ae8f830e4ad09d2U,
  0xc808bd6abf292c4eU, 0xeacc5a030158fa36U, 0x2a23e569c04352ffU, 0x425b38c3b8292fb7U,
  0xacf39f09bccfca5dU, 0xdea7b4c75762bb2fU, 0x56efda5bd15c09f4U, 0xbbcaa743a969c349U,
  0x6361bfd1fb03b08U, 0x3c8d249c2220efbaU, 0xcd20f2c60cf2f6d7U, 0xf01da03ddc1c2eafU,
  0xe632e243bfcf05d3U, 0x233e445a02458de3U, 0xcb3b0c40235fc60bU, 0x1bab20b0f412c5cU,
  0x1c56442ee6fc01c7U, 0xe23f5826eb67abc1U, 0x28e52b23b513ebc0U, 0xbf929fd7e945f333U,
  0x7f4d64f02f5e1cdU, 0x110f138f9aeb2741U, 0x5964f40a4515e13bU, 0xe81dd31c4dc44ce6U,
  0xc9abc2e4fdedcf67U, 0x2718bb1c49dee9c1U, 0xd4355570fa6f9e25U, 0xff0e94f1ec1aaaebU,
  0x290ed13423c50547U, 0xf931ad2f15af0ae8U, 0x2c31e5baa50a0c81U, 0xb6f9edd3f64f9ed2U,
  0x1d2341906cbb901U, 0xaddf17d6dbfae9d7U, 0xa835eb3d0b173ee6U, 0xc80ff4dc1b1f5542U,
  0x2609ddcbad32f2fdU, 0xe307fe1f38373b30U, 0x72413c30138c8dfU, 0x4505f5122a32e2deU,
  0x8d0fbfee0f4f612U, 0x2dc52a0af60be20eU, 0xedfe5363417d71aU, 0xe028e6fdf8ed32fbU,
  0x504200521c4f121U, 0x3601c6e3101404eeU, 0xfee2ca18dc172b18U, 0x262a28271edadaf8U,
  0xed112ff21fbc1d1U, 0x20eb41e1d3d00a0aU, 0x13dd24c62e54faceU, 0xde122d2e14eb06f0U,
  0xc3c1de06334136e5U, 0x161fc8e83ceb2531U, 0x120afd3fcfc90d37U, 0x20cf5145f72329f6U,
  0xbf0a25e7f8101421U, 0xef8e4e4e72811f6U, 0x273eeffe07ca0b31U, 0x2fd806051739ff25U,
  0xff5bae9041aea26U, 0xc1f2e21fcafae2ecU, 0xeebedd0f130116efU, 0xcf1ffd7d4f002e4U,
  0xe11122c833bdfedaU, 0x24bd45c311f3ab1dU, 0x1303efd109ed0915U, 0xff9f3dfe03e21cfdU,
  0x31bdf3373dcad0f8U, 0x14e9e8de1f44becaU, 0x1234d2d1c6e70b27U, 0x45813c1f032bcbf6U,
  0xfe028b3abae4f2f3U, 0xc410cb0141e968aaU, 0x3d074aef2ff3ede4U, 0x6221055f5f75d33U,
  0x1b4ac3f511332b20U, 0x4ae164365a1e2939U, 0xa651bbce0456fba7U, 0xd9d53a70de145815U,
  0x28ddfe4aeef5e416U, 0x1cbd6608c88ce55dU, 0xd062c6950d1d9729U, 0xdff55391ed696bb5U,
  0xeda516e61bfd400cU, 0x19013ec8e2acebe1U, 0x6efaf9b40b2fe502U, 0xdf45d20eed3ccf4eU,
  0x33e6d5a533afc6dfU, 0x27c7095208d9b9bbU, 0x5926e032e9eda63dU, 0x3104fbe3cbe09e3bU,
  0xdeb80dd2debe0af2U, 0x2421f40022aeccd2U, 0xd8c3d91fcfe7b52eU, 0xaecce8dbb34ae42cU,
  0x45101d454dd435f4U, 0xd119abdd592bde04U, 0xfea1edb2fa63092aU, 0x3dbd0d002830d315U,
  0x39c1223db344c8f0U, 0x2944f2dbaa0ef242U, 0xf9f2010c15e9e228U, 0x213109f71c4a23ecU,
  0xaf2305bae944051bU, 0x1b52c4d8ae433147U, 0xcbee4cfba7edef9bU, 0xa7efc9158135340aU,
  0xe21297f5c1cc2dcbU, 0x210ce5b9e33b28d6U, 0xcfb843e5fbc200d8U, 0xc7c1dce6ee36102bU,
  0x162804cd9efb3beeU, 0xcc2bc35bfa1a1316U, 0xfbf3def536c5ddafU, 0x8ec8ebd24c35fe1fU,
  0x33e94ab68b382de2U, 0xf1ab3a30cb460f15U, 0x3205082f239f505fU, 0xf6b81bb9f7d0c7c2U,
  0xd52a04f4e7f3d5bfU, 0x55bde2f0332ecc5U, 0x262ad6cbfb0ef6f6U, 0xbb11b1f009f2cf49U,
  0x10cdf20b381410b6U, 0x4434aa0332f4ffc1U, 0xa9e8fc0510b394c2U, 0x16a5d80d30542542U,
  0x9f0419bf31e4cb9dU, 0x27a3ed1a4f201757U, 0xe03a2b34c0d40bbeU, 0xb3d5cae6bbc22827U,
  0x42e50a39fce6a2bdU, 0xf1311405e5cefcfbU, 0x31ba05ba2ac74728U, 0x8deedc07fd2f32fbU,
  0x4c62f19bf0cb1a4U, 0x2c17a13f04fe40dcU, 0x1cb109fea316dc36U, 0x15f50ba323c5fa24U,
  0x942fd7305333f633U, 0xebae81d1d6ba10e5U, 0xb1e72c33c126dc19U, 0xba06f603b1f1c1e5U,
  0xffffd95cfffffa08U, 0x1225000032feU, 0x4f96ffffc084U, 0x3d2f00001c4aU,
  0x273a00006f49U, 0x246900005b1bU, 0xffffa175ffffef78U, 0xbb0ffffeb9aU,
  0x38ce00002e1aU, 0xd0000001c47U, 0x1951ffffd846U, 0xfffffd760000499cU,
  0x1e79ffffe1f4U, 0x209c00004a5fU, 0x5c5000041a0U, 0x2e75000058fdU,
  0xfffff3bdfffff62dU, 0x53bb00000c14U, 0x192000004759U, 0xffffba7e00002d1cU,
  0xfffffd0200001545U, 0xfffff72000003860U, 0x50b6fffff24eU, 0xfffffecf000021fcU,
  0xffffd8740000223fU, 0xffffe290000015d3U, 0x1a8000000a3fU, 0x3bd0000028abU,
  0xfffff753ffffceb7U, 0xffffee2d00001533U, 0xfffffaf700000a7eU, 0x77c300000a6aU,
  0xbfb507370647fa13U, 0xbabc30e41b34da04U, 0x3c1df02ff32201f8U, 0x41f36003cce924d9U,
  0xef22cd20db15f310U, 0x321dc9153be2f8d2U, 0xc8c53119e1363aa9U, 0xe134e6bfa63ad6d9U,
  0xe0a0ffe8db2ad48eU, 0xe9d5e1e70a40d0f3U, 0xbe392ab2b8175543U, 0x213226d62d3add1fU,
  0x113825d100b639edU, 0x2a435f2d41a27b5U, 0xb4dcde1ceedcce3fU, 0xdb681103dd1e23abU,
  0xba0b1e01db2faae5U, 0xf01032dc370928f6U, 0x134f462d363c2cd2U, 0xcd3730460bd73913U,
  0xda711d0a90fbbdeU, 0xd3eedd710405edcaU, 0xf82711573efa29cdU, 0x27e0c9f40c0115e0U,
  0xb2420c1d2a0116fdU, 0x9f2e431da233f9efU, 0x17cdd83e0e16f70dU, 0x10fd313fc7d97355U,
  0x2c191c03cd08ebfcU, 0x4db325d83df606ebU, 0x2f0103d21bf84cfdU, 0xb6ea1908300e3aedU,
  0x1023b537d2d924f5U, 0x2afd27ea06ac179bU, 0xe2e3c2db54f4e302U, 0xd935e6d103390de5U,
  0xd10c07fc2f54365eU, 0xede3bed8efbefce4U, 0x1b17f4190c5941d4U, 0xce301e29252ffffdU,
  0x2cdd365f0bf71a25U, 0x132a3061cfdb00bbU, 0xca26d4c821e2fad9U, 0x22e2d5cdf5ce4aabU,
  0xf7d8ed0b1a1c283fU, 0xdec700eeb4d00b0cU, 0xcef0abefc04620U, 0xd26e62aac23ead2U,
  0xc2cc062631f74929U, 0xefd464e3102d0ed2U, 0xc337d8f336b50ddfU, 0x4135fbeb49dd2ddcU,
  0x57d3f7ceeb374afcU, 0xc8070a4fbe5d1eebU, 0xdbacefd2faafdb01U, 0xfb1cae18f229f7f1U,
  0x811522dd10c0edf9U, 0x45442ce412ebebaaU, 0x19ccc5d0f502f24eU, 0x1f1d023d3b4b15f2U,
  0x6cf8cbf813d2114bU, 0x26fb674e16f71441U, 0xbf3de5322f280deeU, 0xef34040474ee342fU,
  0x98cdfc3a3a16e932U, 0x465c0847099c14edU, 0x1926a6b544e343edU, 0x295d37ffb337d030U,
  0xcafe101f1a4e2538U, 0xb4d3c710a442b1b8U, 0xadcdef3322c4c811U, 0xb531d9e6f438d7b7U,
  0x15be29ced0340b24U, 0xed992a193ee5c3e1U, 0xbf17d83aa1d530e8U, 0xd2d2221fcca434b8U,
  0xcc270ad7bf97d037U, 0x3cd0cfe2caf8bf42U, 0x7f232eeefe1221fU, 0xd3e12e43dab7fceeU,
  0x27bf213101f2a2eeU, 0xf125d22bec385afdU, 0xe0223fc0726d5e6U, 0x193f2ef70c294313U,
  0xa7efeaebf0b122fbU, 0xd7113240e1c616ccU, 0x5626e2d2341a50e7U, 0x3e210728ef24c0ffU,
  0xb4c0e8d33400b32aU, 0xce15f03643730727U, 0x230ec759f7e82af1U, 0x25119eafef6c927U,
  0xf3e31f519fe633b9U, 0x203224dbcc602fcU, 0xeff1c529eccf0edfU, 0x41bcd133f22bd20eU,
  0xb1b0d0b046144becU, 0xefda7f1bd73fe329U, 0x3ccb3d48bb4a0ee5U, 0xd1eb0855dbaabbfeU,
  0x3f1954010626023cU, 0x38fa03e0fb2712d1U, 0x11e33c500bfc360eU, 0x262c04d8f6ec314dU,
  0xf6f0ee0ab910f3d5U, 0x422945ef08d54ee8U, 0x1e0b251d211630f3U, 0x2cb1d4a11dd9a33U,
  0xc4c55e1c3838c62cU, 0xe8ce3932229af2U, 0x330be2d4d7e0eb07U, 0x3ae5d8c49d0119b0U,
  0x1803ccffd3c85069U, 0xd210f0e1eb05d312U, 0x43fffafaeeadd4c1U, 0xd6475e244a3be8e3U,
  0xf7daeac902ce4ceaU, 0x444aeb17d5d039dfU, 0xbb43e0d6411bf448U, 0x1c0cc3e225d23505U,
  0x16cf47fbb9fa3b00U, 0x582901eb24c9c5ddU, 0x9e8bef82ad7f5edU, 0x42fddde9fb9108c0U,
  0x3819991425fb121aU, 0xb7ff98413a1f1aa3U, 0x21ef9347d4d83095U, 0xe047430beaf1b915U,
  0xf936be20da02cc55U, 0x1320ff2028d7c9adU, 0x1395d8bf21ee2fc1U, 0xa10624cc17fb11b7U,
  0x31f1ad0ebee03b0bU, 0x19c031ab8ef94d9U, 0x42b3cc04ff40064eU, 0x2125500d38e41bffU,
  0x527fe39ef140461U, 0x4a5e34b458f31ff8U, 0xfea8ee18bd374233U, 0x3b44ea2d38e027d4U,
  0xb9f16f334f63689U, 0xc3533ac1f542ed37U, 0xe734ce4bfec21c15U, 0xafefec21fa19de10U,
  0x20b235eac466deffU, 0xf0e14ee2fdd0809U, 0xfc06dd3011b5ee00U, 0x3bd723f11a3d3ac1U,
  0x832292db5fcdb31U, 0x292040b40ae7113fU, 0xfe0cede4ed92c329U, 0x160ed435e9e3e8e0U,
  0xf1115d3d1c82dedU, 0x12dd1d2f4e20bc8cU, 0xff706e518b7d9e2U, 0xd4107bf1b1ab72eU,
  0xa71ddfb519e8f11dU, 0x8e035d417062ce0U, 0x222eb831cd060f1bU, 0xc91a1dcfe72f1bdfU,
  0x2fa1ea43423efc26U, 0xdb4a003a04e1fff3U, 0x3fcb3ddbf700f2aeU, 0x17f3bcf34f01d2bfU,
  0x6ed2cffcaf50c22U, 0x393cf2b56d1f9f35U, 0x1fcdd1cfe113b9bbU, 0x17e6472ac833340aU,
  0xdf2d041fcef10414U, 0xd3904331e38f1c6U, 0xe00105c81927c8a9U, 0xf8c52fe9e305f10eU,
  0xd3f5eece34120512U, 0xdf6f532dc050026U, 0x1926b6a9f0fc1f26U, 0xe92cf3fcee0020efU,
  0xacdbc11ef8e008c1U, 0xe51538d3bd21d809U, 0xf3ccea25040ecc23U, 0xd7f9cfc0cd10e816U,
  0xe61a2132c328deebU, 0x1a2519dbd1d1b341U, 0xccccaf1145ff17d6U, 0x2283618eaf42734U,
  0xe8dad8fd01efeaadU, 0x19fd00fc40bd32ccU, 0x27a2d32c05e9b615U, 0xe9c624d8f44f12baU,
  0xb054fc2b1cf1d2edU, 0xf113cdc11ce949U, 0xeb30d81cf7af14e3U, 0x2200d9deb337c2ccU,
  0xb12cce149e0daff2U, 0xf3e409cff9e212c9U, 0xb9b726473fc6fbc3U, 0x1c5c100c31ef1ba5U,
  0xc311155d0a31b4ecU, 0xeb3efd1afae2cbedU, 0xf4b22bf4f2b70933U, 0x3407f3e64f1a1812U,
  0x28bc0ebbe40711efU, 0xe5413a26d5e527c4U, 0xc3180d29070d0916U, 0xfddbd040c7ddeef7U,
  0xfa361e1cc64fded2U, 0xe3ee0793cae8ac21U, 0x2cd9d5cd23e73b04U, 0xdbda2d09c13f37cbU,
  0xcc061cd9ea29f21cU, 0x280c55bd511ef3e4U, 0xce8143fae620d8caU, 0xf7f935f2ed1d3be4U,
  0x4109c02ccceb23ceU, 0xfe0617ae29d2d93cU, 0xd9e913c41dc2da21U, 0xa00a1e179dddc304U,
  0xced2d8590dad3f37U, 0xcc2335d6db171510U, 0x909342fd902da4bU, 0xdb4c47fae29fe9feU,
  0x15c234a3f9d1daf9U, 0x4fd6f8f227c52ec7U, 0x3ce9edcd12f70f4fU, 0xf80d3141292b0f2cU,
  0xcaff617e50b5803U, 0xf42f3a0154f9a728U, 0x2ff550bb0de0d5f0U, 0x2a0016f9e80c5ac4U,
  0xd0c92cdb27ddfcd7U, 0x27cc4609e9a9b425U, 0xf912dd86d90c0cc4U, 0x4629cc943c0eccdfU,
  0x293c20e63c30e2ffU, 0xdb09352ecb2df428U, 0xe8205add3bbbefe6U, 0x171e22fe4ac2d30aU,
  0xeebce140c91b365aU, 0x3546103cfd11b218U, 0xd3c4eb0349ee1f0bU, 0xed2cde0ea39db8b0U,
  0x1cfc2e393daef8fcU, 0xd9cbe604c03859f9U, 0x10f2e439d0596c22U, 0xd61ca7f53cf2bd47U,
  0xaa12a1af43e31436U, 0x58a117253031f230U, 0xe9db493e6df4e129U, 0xeabdfe56034537ecU,
  0x55ea0ec0111641f1U, 0x5116351717f90eddU, 0x91001e9021037f5U, 0x2d08bf11ba53d943U,
  0xe13db1c514c24446U, 0x3dc8f3e5e4e957cfU, 0xd0afe03dee0eb91dU, 0xd00b75b6bc054617U,
  0xdbc448d2d1ba074fU, 0xd5fa1b16f537c826U, 0xb640510bb2f0e921U, 0x4cf2cfd32300f7dbU,
  0x2af0c1c872371470U, 0x11d87fd1e015fec1U, 0xdd18020f18befabbU, 0x1b4cf4f6d118efd0U,
  0xbec9a8e62b51302bU, 0x5609d2f7181cf0f0U, 0xa732ecf3cafe1743U, 0x4e06962ee4e1a5ceU,
  0x173c46c4dd0bfadaU, 0xf8f3d0d63731a12fU, 0x2bfe34f8c928fbd5U, 0xe903d3f5e246a1e0U,
  0x3437e434e5e31054U, 0xf3bd5c600907e4c5U, 0xf8daed8eb6df570aU, 0x19d7ba89b4354319U,
  0xec4e24ed114403f2U, 0xd5eaf71906475897U, 0xc006b16c3feb9a9bU, 0x3c6f61f312f9fa03U,
  0xb9b7d83eae1cf0e4U, 0x4b0e8eebb4b26b0U, 0x8a154e32bbd959b6U, 0xd9de18fb29724841U,
  0xa032cd850cefbaeU, 0x8c0ee7f7fdc33ee8U, 0x68055738c4fc43f3U, 0xb51ca315c50b8eb4U,
  0x116c9060febe426U, 0xcd03e9bfef03254aU, 0xed1234da52d2bdfbU, 0x19dfec4fe6fc42b1U,
  0xd2fa1d2b18ffdb45U, 0x2b11d2eb1ad02d1fU, 0xf9e3d059c9230201U, 0xf5d1162818fc36b2U,
  0x2fdee7e2484f0036U, 0xdced4f1702ae06c4U, 0xd0ede3fcc60fecd1U, 0xa26007f9ecd8ee2fU,
  0xe6a120d20d2b13d2U, 0xdec0e42713a41de9U, 0xf12a48071002deU, 0xd1fd2c02e53fcff8U,
  0x303714d82eb8b2caU, 0x25ca3c3b5b9cfb9aU, 0xf2ec22fbc2411327U, 0x3305be24e40e23beU,
  0x6f702edd304f82dU, 0xe2e4431fbf84c2dU, 0x2d0827e7e305dce0U, 0xdc0c3dfda0f12510U,
  0x2dbf6d0251a090cU, 0xea0aff3211dd2edbU, 0xddec09210038211dU, 0x44e60716c715e7d8U,
  0x122840140b18effbU, 0x1945ef172fba2813U, 0xd03412e5d1fb0ae1U, 0xb2e7103a1c46f2d6U,
  0x39c7d1e112371feaU, 0xd2f5171756f9e104U, 0x35d203130100f315U, 0xdd0c18e5f713e5c8U,
  0x270de4fbe0d7ecfbU, 0xf5ebbdf2b2d49fd8U, 0xc4f7160906f9080cU, 0xa1171e0f02df1fe5U,
  0xfdd9fa2c31e3230bU, 0xd11950f9f533de0fU, 0x32add8d0f1fb18feU, 0xda1f142705fea3f6U,
  0x14f9dcf8f6ebdfd9U, 0xbdf2bddf991c90aU, 0x5de6cd2210b1fb27U, 0xcadd19d5120a2901U,
  0xc3e222e2bf65fc3bU, 0xf5b10ac2db1e2842U, 0x3bf9de204f483a32U, 0xe8f4e5061502cd00U,
  0xd8f6d8c8d60dfcf0U, 0x143041d3e8d5233eU, 0xe2090e02f51dece5U, 0xc8e5ebc213f90a2cU,
  0xe112d4f804d7d319U, 0xe33e3a1a32491edeU, 0x1d81f5494fe53201U, 0x3b44e62a28fa2534U,
  0x2328dccebf05e905U, 0xfddd0146dd92dcc5U, 0x6ffbfd821d8fb08U, 0xfa38f0ffc1cffa2aU,
  0x6ea38c914f9ed1fU, 0x1fc58303941ef14U, 0xf0fd26cb4e38ed02U, 0x31d909f807cd15d1U,
  0xd03dc5293523ec05U, 0x3d0727ec2199ddd5U, 0x5e520f3cbd091724U, 0xb5eedc182adce2bdU,
  0x10beaafb1fe00404U, 0xdec3e4343431c4bdU, 0x24bff6bde0fdf7e5U, 0xc4e2e3e3db41f6f7U,
  0xef0215d00bab01c9U, 0xe71504f06ae3b423U, 0x23c3ca3aed5c5950U, 0xa63e0acdf63b27bcU,
  0xe838b82ce90c2bc1U, 0xe9211ce4eafaa9b7U, 0x1ed444f8100e03deU, 0x233cd0c10524e08U,
  0x2ae92e06dfc8e920U, 0xec2039acdce22fa4U, 0x2bbdf505f71c4308U, 0xbd2b15b31a1406f1U,
  0x70c08fbe137f6aeU, 0x11e72d1efb17e1d7U, 0x38082dfef9fe2f1dU, 0x17d8080bba0300e2U,
  0x279f11c6eee04602U, 0xf1e3ef0be1f9d809U, 0x252baec904e01b1aU, 0xf82909ba05f837caU,
  0xab9b9ce0602f514U, 0xfffc4a464d27c2beU, 0xb326d82b36fafb2bU, 0xe6e92ee5dae900bdU,
  0x502f0d1ab0f20b0fU, 0x1b1dded5d3d23db8U, 0x22b00f31d1ddd916U, 0xe817f51a9f41f506U,
  0xc09eb39d3ff2718U, 0xec53d35000b3de91U, 0x42fe6d850f829d0U, 0x3e0fedae21294040U,
  0xb2a21c221b7f400dU, 0x1801b5f2dafbed15U, 0xff0922f0f101241fU, 0xc1cdf200dddae608U,
  0x404efe342615c21cU, 0x2fd44918be17fb9bU, 0x102c1a21fa9d0635U, 0xd03f29ce03d2e126U,
  0x351233b8d41855eeU, 0xec161611efb807c7U, 0xd8d716de42330411U, 0x30fec208f41248c7U,
  0x17d0071e0126de04U, 0xf818e2fce3da4717U, 0x225cdbdd07d301aaU, 0xe9e535e1b072de4aU,
  0xc0cf332b2216143bU, 0xfc14d204dc1d2d35U, 0xde2625f0c20819ddU, 0xd88fd20c102f3501U,
  0x2c3be809383ceeebU, 0x4ebaeafbf8fa0f25U, 0x12594037e6cd42e6U, 0x8f8cf0cfe2907dcU,
  0xcbc5e6f8d92effd6U, 0x15da12fdfe1c06dbU, 0xa8cac00d0de4f2U, 0xbb6ddb72bccf844U,
  0x320dbf4c1a3af1f6U, 0xf9c9d4ebd6123503U, 0x1209c1b4d78dcefdU, 0xaa263c94d26f042dU,
  0x3630cfcee8faf3dfU, 0xb2f30f22f0ef100fU, 0x291ff4fa0bf0ec29U, 0x4350b09ef9d9134aU,
  0x9bcbca0ff696c266U, 0x34bdfd0cf012bf5U, 0x960431333643b568U, 0x431ddd4f45e0cb54U,
  0xd7a7bbaf14181572U, 0xe722b71cd8bbe1abU, 0x14f9150721f0c8a6U, 0x225e3615f34fb9e2U,
  0xdfbbc943b4bd3702U, 0xa538d73f522abdc4U, 0x2ae4fa445c303c69U, 0x1dec1b4ee339429dU,
  0x3612dd203cd66d6eU, 0x1002fbb3ffaff2c3U, 0xd005e634f75a11abU, 0xc01504fcb9ec3306U,
  0x23ccfb2abf15d010U, 0x37b32330e6d0f181U, 0x2dcc39e0610dc2dfU, 0x15b4f810ffe3db92U,
  0xf6fbc3f8181b7f5bU, 0xa9e6d1c7a28d4d11U, 0x61e27afed39d4d3U, 0xd9feef19b84beed6U,
  0x6a8eef6f439dbbfU, 0x4b3f7a2cab71fdaU, 0x703032dcb80af5e8U, 0x541810f4275b0ca8U,
  0x5cacd1131f23ae01U, 0x1d1f31de3931f018U, 0xde1fd3d8151c1839U, 0x3d35e709d60311edU,
  0x40d50255d85fe2e5U, 0x40e326b20ae62c0bU, 0xe61df72c310b0029U, 0xc19dbdf1af0ffb0U,
  0x2e1b3736d940bf79U, 0x24ff1421e22a25b4U, 0xdd4ffb3d31f7ba34U, 0x619f908a2d8cd26U,
  0xb51fcc92bf2cc18U, 0xf7d8f0bd9df92ad0U, 0x21ea2df4dc2bcf34U, 0xfbdbcc2651175714U,
  0xf26112e21202eb45U, 0x3be14bea0b2dc81eU, 0x4a0af4bc2a32d3eaU, 0x55bf7dacc44e0fcU,
  0xdae94afad16d093fU, 0x460314ef1e01fbf5U, 0x3011c101f2c71145U, 0xe709bac5b77cbd1cU,
  0xadffdc2eaef6efd4U, 0x20e0fcedc41349d6U, 0x43d3f6121d60ebdcU, 0x4413012a473fe4f5U,
  0x270808010105402fU, 0xfbc1544da8d3cd22U, 0x214011d0dbfbd9f2U, 0xc9dfdcc8912713f0U,
  0x30f5e03fa6020f40U, 0xf82b68f63ac3c65bU, 0xe0b619fbbe491d26U, 0x5edaf118ca3c03c0U,
  0xe596353c074b5f56U, 0xd3282aefd5c3473eU, 0xb33fd718bc440a2eU, 0xe62cef382dbe9fcfU,
  0xf0701b33362d2a28U, 0x38f2642e44294e2dU, 0x4d162f2e00050b4eU, 0x24bd0410b423c5ceU,
  0xb1ca27090734ff26U, 0x2cfc4c6450ae518U, 0xde39ec1df617e7ebU, 0xe7e81f16e3f5d4e2U,
  0x1230ddce2e7aaa3U, 0x2c1b29c9c05d28d1U, 0xe9ff21aafd0b600dU, 0x2c2b05f1e7add8U,
  0x229c1f8df3ef5ceU, 0xecce0ab411ec599U, 0xc3bc4e14b7dbd6ccU, 0xecaca2b43d4cbdcU,
  0xb8c6120526eff5c5U, 0xed07fedef4d65929U, 0xc910211a36d9ea30U, 0xca814added29e70bU,
  0xdf27e4db2e18dfb5U, 0xda2510dc62c9dbbcU, 0xfd413bda0605ed36U, 0x7e0de2bd0ead815U,
  0x44040508db2f2809U, 0xfed3d7daff0becbdU, 0x2807adbef620eacfU, 0x19f8d8e2d0f2a492U,
  0x1726c9352bc8f1d5U, 0xcc24994b39eaf219U, 0xe9e4f89cb4ea1fU, 0xe8d7e3dd174012f0U,
  0xc23e00e6e5b4fdeaU, 0x36f9a41543e33727U, 0x2f09b9e31caa0cb9U, 0xcbef0a4ac435ba21U,
  0x19b9260d2cd644f5U, 0x25cd1e323fd8f52eU, 0xdb17ee49fbdd12bfU, 0x1144d10eecb8f5d7U,
  0xcecddc0a35321defU, 0x25e71f1dc5923224U, 0x4a24fe1e5605213fU, 0xfe11856d30e31f5U,
  0xd429df4c18fe3120U, 0xe929ef280f4ab4e4U, 0xf61c15ed2ac0490cU, 0x19f50209300aad10U,
  0x2833fd0dccfe1523U, 0xd10bc9a2f5d6ec03U, 0xe6e7aa09c5acd6beU, 0xeed529fbb901122bU,
  0xfb170efbe8010ff8U, 0xc711c61d0c3a1709U, 0x293c630e26e2d1feU, 0xc729dd461612eb31U,
  0xdff4e8ea1bca0ce0U, 0xce35251ae4cf3e30U, 0xe3b9d6d1d5a73500U, 0x488e3919e7d9d2daU,
  0x70be6330746eb0bU, 0x21d31c2f4fd9fa58U, 0x25d223cced3d38d6U, 0x3cff1de32de150bcU,
  0x3412061ce4eef525U, 0x2d28f004ecb74b4eU, 0xdd0bc5d808f912baU, 0xd8d43cbfe0ca1becU,
  0xe58155ad855e9c4U, 0x34162f43d7e64844U, 0xf4e921bc41dd300cU, 0xf038c1d5e4f4e8afU,
  0x2c3e07d91644ccf2U, 0xe53242070ed6f3beU, 0x3e2e15d91fe3c3c4U, 0x6de7d8ead8e3ca05U,
  0x3c121b24c9e8b295U, 0x291e2444432f95feU, 0x9c0909dfd9e6cc00U, 0xd122b324e0e8702dU,
  0x3147cc2e333b440aU, 0x5ad14e172dec6003U, 0xa6b73dee1adeb82aU, 0xe3bae7fdb73bc5d1U,
  0xfcf4103ef4cec8feU, 0x612e27be28f3c292U, 0x642142a0e24ced8U, 0x18dd031a1bbbd7deU,
  0xcdf5d830df1fd626U, 0x13fc17e105addcfcU, 0x1ee0e2394702c814U, 0x18e40ee5d8082ed3U,
  0x10d18114f622e24dU, 0x1fed3ce416badce4U, 0x17de4fb4e100d730U, 0xae71936e7ecbcf6U,
  0xc3f3f73d2ffe043eU, 0x24ea0bf146f51b28U, 0xab083cdfd92c11d4U, 0x19b00c22ac004402U,
  0xd83ac22109c00d29U, 0x170057e01e28beceU, 0xf34deff222eefa42U, 0x1428231208d9d022U,
  0x221b10f6cadf0fc7U, 0x2ed4fcd91b291a0dU, 0xbc9e70a2bea144aU, 0xdbe9124a0d63c6e7U,
  0xa60d20df3dd5002cU, 0xb800f9c100da35d4U, 0xc502cfe0029c8fdU, 0xfef00ae9d8f838d6U,
  0xe2010d0b03bee1feU, 0xa3de4bcd1fbdee17U, 0xfdf22af9d3f919beU, 0x241501cbcfcb3207U,
  0x3af2d5171cb54935U, 0xc9d7e03db5001bd2U, 0xe5bce8cc4b1ebfd9U, 0xd52704ce4159dd05U,
  0x36d2a5a312cd0152U, 0xbeb40a0ac61510e7U, 0xf0c8b44a07d01b4aU, 0x3bf832c6e337dba0U,
  0x3bbaceace03746b6U, 0xcf143dfbc7020ce8U, 0xd5d0fedd0460e31bU, 0x1c292e1c123db6e5U,
  0xa3fcf9fb163d0b0cU, 0x1af0362606c419f9U, 0xbcca1aec1a0e3438U, 0xcf09221ef8a1d019U,
  0x51e41eec02d91958U, 0x31ff7d42b46e1b7U, 0x331db734061ee31bU, 0x5bb126eb4ef1f9d5U,
  0x3039a364a04ca33U, 0x2bde3bf01ff11f34U, 0x34ab015bf6f431d9U, 0x55417332715f118U,
  0xb5e1bc050e3d3f2eU, 0x4c0d15bc2b9844aaU, 0x4dae4411ea06588eU, 0x11d6c1bce4450cfcU,
  0xc954970c33fafb45U, 0x4e8e58c107e7b924U, 0xf0dbca1731b51d21U, 0x4b13d4312a1ae010U,
  0xbaff523033164120U, 0x49d214d91e03d3b3U, 0x3a232c074c3ee3f6U, 0xf1caf437266be51cU,
  0xaef04bcf312eecaU, 0x4209c227f44c11dbU, 0x8e1ae217e82911f2U, 0xa767292709ff12e7U,
  0xa9ce2afb402ce741U, 0xe617d555e401fd82U, 0x424ae2e637f346d9U, 0xc3aca1d926450200U,
  0x43eef82330eb1a03U, 0x22b51ce445da1b3bU, 0x51b20ae804fd27bcU, 0xda1be5c9d52e49f9U,
  0xc61ae8fd3f4e3a09U, 0xbabe3562705c7bdU, 0x55d628f4f922f903U, 0x420f3e544c1ae4daU,
  0x3238b7dd1cf3fd3bU, 0xd40016acfd18abceU, 0x1d29de2a254191a7U, 0x564b061d10f1bfbcU,
  0x35189822460d120eU, 0x1735fddd7bfa08bcU, 0x2c33383e1ade97b5U, 0x3d4eea433cd9cdf5U,
  0x160bffe7d8bb02f8U, 0xf0e5e3ae09e4f027U, 0x5cef33f2ed52cbb9U, 0xb402fb4615ed2f47U,
  0x31aff4c129a6d3f2U, 0xc82bce0c18080614U, 0xf4142913dedc011aU, 0x3a181a2fc219cd29U,
  0xeeee0df02721d0a2U, 0x3df4cfa9ba44f4cdU, 0xd161f3e3f4127f9U, 0xfb361d2c4cf40e29U,
  0xbe2e5d0df38bf23U, 0xcbf426d4d4d2acc0U, 0x401fcebf61bc11dU, 0xc37f1d5f81f402fU,
  0xe519bec326f80a42U, 0xe4a02ae1de4015dfU, 0xf6dcd706e0f3c1e5U, 0x8ac3eeadecbf66fU,
  0x1cf5d537ff0bcfdfU, 0xe045024eceeb20c7U, 0xf19eb209f7b49c33U, 0xdbdd1efded1cd79aU,
  0x5ae6f3cbbc03d102U, 0x1f3928f68106fa93U, 0xafac05e6f9de1c01U, 0xe01d03f0ec31e9faU,
  0x1112a5fb2ac94f10U, 0x730316505b3b71eU, 0xcefa9170201f32aU, 0x25f603eabb05e53aU,
  0x3ccbd9dca4ef161aU, 0xcf30fec1d3eaa2ebU, 0x81bd102af1deb83bU, 0x60f0a0cf3d8ab60U,
  0xca31f949be56f222U, 0x2ed61625d650e922U, 0xbcb8c4e2f31eeca0U, 0x4da312c7b232e2afU,
  0x26c60c33ac55acd1U, 0xb214cbba1c36cc30U, 0x9b3ef701fcc18bd2U, 0xe719ffa6310841e6U,
  0xbd3a29f7d4b9bae9U, 0xf6fec101a23eca33U, 0xc09c07c7e8cf2e9bU, 0x31184a0c19174fdcU,
  0x5224270c4af81fbdU, 0x5d9bc4f3c95df14U, 0xa7e37f23533fbf1U, 0xf0c8fbd7bace2747U,
  0xb6ce63d6fafedaf1U, 0x182d1842242bc933U, 0xec182abf19e532b0U, 0x4c2c11ea44f6c1dcU,
  0x38ba9b9b2bd4f0d7U, 0x1c07a4a1c5c3cf16U, 0xb73333fbd420c1e6U, 0xab0af3085adfc823U,
  0xdcce5510ec8bbb31U, 0x1d23042ea5b1d747U, 0xd4014f8ff2d54c14U, 0xe5d11415ec1bceabU,
  0xf01abaea1c194cf6U, 0x13051544d19fd4b8U, 0xffeb03d9074efd23U, 0x18e3bf2d20c39fddU,
  0x847f8d91e9730c8U, 0xf10c23f33a32ce49U, 0xe39deaf536ef0cd8U, 0xd7e4ce14fc263030U,
  0x34ff38dff1d82933U, 0xbfed41c30d222f1eU, 0xdc30c9bf11a7e957U, 0xef38e42b0f54cfe2U,
  0x2f001d019ab75157U, 0xf2c9f9feda1a30c8U, 0x54c001d50cf7c7dfU, 0xf0ddf2dd4aaeaea4U,
  0xe14853f1b760d705U, 0xff2ce8c4e2b2b100U, 0x3e809bfdff3e76aU, 0xe62efb93825a82aU,
  0xd9351d2fdf14ff4bU, 0x10dd0634edee07c3U, 0xdf5efdf95fc80555U, 0x16172d3def28ee37U,
  0xeac0062012c2c5e5U, 0x5bfdd90d07b5eac0U, 0x38e93216dde9fefdU, 0x544f0926f6cdfb35U,
  0xf42491363b3b19e1U, 0xc7c9fedfda01e14dU, 0xc9aeac42d0d335e7U, 0x27b11325bac21218U,
  0xe91b2ebaf0f708e4U, 0xcf47ad4bb1bfe92cU, 0xe715d2001108c305U, 0x62ec6cdbd2c2a9adU,
  0x2c38dfff3704cde3U, 0x1fc9e71fec3a3ccaU, 0x2ce3ef19f70fdf10U, 0x192c4652c6aecd31U,
  0x45abb7a60e4b15c1U, 0x41c2de27c4f94433U, 0xf7603e05ab0735c9U, 0x3733c31b383783f7U,
  0x165e1f47fa241df9U, 0x44e6f0b0f2f9f111U, 0xabe60be8d523fc01U, 0x2420c8c425aba6f8U,
  0xc1abfcfd2bda501fU, 0x7f0cf9090b00d8f1U, 0x2d371441a50e06f0U, 0x3c1c0b111497c829U,
  0x6d0efb642d337ceU, 0x21c510dbe1302f58U, 0x252ee4dd053312beU, 0xdb4e19162c11ddf3U,
  0xd303070e193e5ceaU, 0x183c15fb513e3708U, 0xeee5e8df1cc6132dU, 0x10ecf40933fe1e09U,
  0x49d520d7472cbfd1U, 0xc61ce125f5c44c16U, 0xf9ef00fb0f3e2211U, 0xcf3508f1ecabbdf4U,
  0x340ae3214cc8d0d7U, 0x2c1b0c353d12e1feU, 0x1fd3e79555d3fceeU, 0x44aafc54150422d0U,
  0xe049190d08d1feb3U, 0xf924bc0a0c1f4c58U, 0x1d32c9d6262eef46U, 0x194cfafbbbb2282fU,
  0xe9c6e51014d43efdU, 0x2ede4fe3ee71af9U, 0xf5efd6c43cd105dbU, 0x49c5cf162ad509c5U,
  0xc10c10e00ad7b9daU, 0xe8ce0b19cf24df3aU, 0xc2dac4efe9162efbU, 0xddd53719d616dffbU,
  0x6d7241ccd1fec0dU, 0x4defe424eb24e82aU, 0xe1f92021e203c7b8U, 0xc826c120d407acd4U,
  0xfef6480502eddbb5U, 0x2df0c81623c70007U, 0xc4e9f0e4d719c1fbU, 0xfb171ecb081dd002U,
  0xda1fce290fb900c8U, 0xf11601e10719ddd0U, 0x273319e3ce40cefbU, 0xb4f7d901c41b28beU,
  0x811222b17cb0d02U, 0xf90a142b1d40cef1U, 0xed09caf53129c7feU, 0x3908f2f5bf26d233U,
  0xcfa9d6f61c0cd502U, 0x2ab0dde21e3e2b37U, 0x2222f4b93ae0812dU, 0xda070bdb38e7af4aU,
  0xde2307d9c1d2c7e6U, 0x2bc40907f9f6292dU, 0x48f2f8311d21cef7U, 0xf5b6c1f2ef20f4c9U,
  0xaed01c202dbfbb8U, 0x25d4c218cf17a2daU, 0xb3ff1e0d474eec0bU, 0xd90400f9fed81120U,
  0xcbbef015c819d930U, 0xc0bcf8de06f137deU, 0x462327b7bffed40aU, 0x5ecd21038271df7U,
  0x46ae25d5cbd11514U, 0x536c1fc4f25122eU, 0x11edaa40373aefbeU, 0x3bd339d5fdd44819U,
  0xc941ca02e33721b4U, 0x1ed31322fbb7f2cbU, 0xeeb6e2bfd023eee3U, 0x14fbb900fbc2dc1fU,
  0x28b7f9b80f5539dcU, 0x17cbeec8114d0e20U, 0xc73bf80110bdddf7U, 0x1ec2304220b231fU,
  0x842f205dfd20804U, 0x272ff7d7f0fcc30fU, 0xacf9350c1852e909U, 0xa0a3d5d7ec00f1f2U,
  0x2d22fa1f00fd1518U, 0xebdab91fcfb5f43cU, 0xaea20fed91726c0U, 0xab16e3fcf7b3270bU,
  0x436ac340004ba15U, 0xfc2601b1c2e9a5f4U, 0xc0eb28bdd8e4cc00U, 0x2294d5e02700c51bU,
  0xed8bd82609f3df26U, 0x1efcdaf124f1e7f0U, 0xf0b00a060144e6b7U, 0xa250b081df5dae8U,
  0xcedadb08ea32e343U, 0xcce8c83c36fbbfefU, 0xc7c62abad71e36daU, 0xef0d1300e10312e2U,
  0x26e3ecf6f5d42820U, 0xf53c303bf6aece1cU, 0xd5cbb9f6381df4ebU, 0xcf253933fd0bfbf9U,
  0x9e9d30a26dd4132U, 0x35d814cac2e215d3U, 0x1143ceec110eb24U, 0xe2490f3c30b50facU,
  0xfcea49b24601e93aU, 0xafc7f7ec14d5f7eaU, 0xd50d0936a49a1b22U, 0xf850d0dbf612c04dU,
  0xefeedd83b31ba01U, 0x1e1438e1f517d71fU, 0x3cb33a35f0f6fccbU, 0x401fdc012423095dU,
  0x20a816011a9ae01aU, 0x3931be10caf2f32aU, 0xf83ac612f806ef4eU, 0xab151de2aafb1afaU,
  0xc522d846031dcd4cU, 0xe0f1e7df1deac4efU, 0xfca7e0d314ca1abbU, 0x45e1f63e12d3c8c3U,
  0xc1bd080ed0161c38U, 0xf6ce2e40bdd70d22U, 0xa4d60999ebac0ef7U, 0x352af01229fd18eaU,
  0xc2e8082eeb4dce7fU, 0xa32b3bbc4f2d2433U, 0x2fcf0b5df01c7d8U, 0xd7e0d31dd231e2acU,
  0x2bb42b4de8c8b649U, 0x54490f4a2101f2d8U, 0xd0acee1ad601da18U, 0xd8d512bc0d1ce146U,
  0xcfcdc7dcf309383fU, 0x52ef232e9fdd438U, 0xc33c220d4826352aU, 0xc314f5050b2bb1eaU,
  0x2dc4ac18401bb03fU, 0x20154bd9d92566daU, 0x89d19efcaa4c940U, 0xdb28e2401233e5e6U,
  0x43eb3240d8f22a02U, 0xf563efd15b25404aU, 0x493d5c05aae0fbecU, 0xefcccfea61f1c916U,
  0x3c3731e03adfd12aU, 0x2b1d390edee94ff8U, 0x2116f5d9ce321d11U, 0xfc03a211d243f0ecU,
  0x5d1fef3e3c6406a8U, 0x92e4054f7f8041cU, 0x100edcc252ccde4U, 0xc83f23e2cefcfc2bU,
  0x17d03708ead3e049U, 0xb32dc35030dc817U, 0xd6c23304eee3c4eaU, 0x15c1ddd01495faedU,
  0x2306f131d8e3e59eU, 0xd0dc0a053029c902U, 0x1ddad2eed546e9dcU, 0x29f5d2ef1d0cf1c0U,
  0x1cb6124ef7f122efU, 0x3e6d5f949f012d6U, 0xcf13f1e5e7e7d4d0U, 0xc1fb3bc00fc3fdebU,
  0x45df0af81f0d0a02U, 0xe31bde3b10fd25dbU, 0x1000f52b161807f1U, 0xe1f016ed27c71bd3U,
  0x33f2fe341a00c3ffU, 0xf1eb073af84927f8U, 0xecf9e3ddd10527e4U, 0xcbe13d06f2e50ce1U,
  0x3b181005fbec1b13U, 0xc40dfa0538301428U, 0xfacc091c43be0108U, 0x1cba3506fecfc2cfU,
  0x26e6d41bc3ecbbdeU, 0x24e5efe6f812c9e4U, 0xbcd6d3fddaacda2bU, 0x9c9ddaaf3e5e8d9U,
  0x111f1be3d61531eaU, 0x311b1b0af1d3fdfbU, 0x13c801c7b9cd20feU, 0xd5de1c2da8c322e4U,
  0xde27f8eff517ba32U, 0x38de2d40502a35bdU, 0xcef6f98118d9f411U, 0xcc30c60d44df18ddU,
  0x35e7dcd2f6f421d8U, 0x13ebb20039faf40dU, 0x307d10a33182ffcU, 0xe0f80ccada0bde48U,
  0x10fbebf6111bbe1cU, 0xf5c6130143f61fdfU, 0xd7ca1efb19150122U, 0xdf0204eb16e42209U,
  0xf7dfe1ce2f2904cdU, 0xf35b0d0c51271912U, 0xf50bfc02cc241318U, 0xd0da29ddfae5e0d4U,
  0xcfaea3b1bc1f6ecU, 0x2bb4d228abe023b5U, 0xe6ecc7ded01de2c6U, 0xfad3e60824f2dffdU,
  0x3124f7d5d91a05f3U, 0xf4132c301cfa2bbfU, 0xd610ebe73501101dU, 0xc30efe0f15badf0aU,
  0xf3c4101ccbdb00f9U, 0xce2ec3fdeed5b61aU, 0xfce30edd100e25e9U, 0xe938f80dc81e0a05U,
  0xdf2f50406bab9e8U, 0x290821be03ede3c1U, 0xf9be10df14e8e9d0U, 0xbfe56d54f321cfbU,
  0x29dbb21b0308fb23U, 0xfdc10c2244e5ef3bU, 0xde2b26eba2c4cf34U, 0xb0c3bf4e1e22ab0U,
  0xf40ddc1bd7d6beeeU, 0x3bfff57726afcde8U, 0x1210000530f81be2U, 0x8beb33e3baf1f29U,
